/**
  ******************************************************************************
  * @file    network_data.c
  * @author  AST Embedded Analytics Research Platform
  * @date    Wed Sep 15 17:37:12 2021
  * @brief   AI Tool Automatic Code Generator for Embedded NN computing
  ******************************************************************************
  * @attention
  *
  * Copyright (c) 2021 STMicroelectronics.
  * All rights reserved.
  *
  * This software component is licensed by ST under Ultimate Liberty license
  * SLA0044, the "License"; You may not use this file except in compliance with
  * the License. You may obtain a copy of the License at:
  *                             www.st.com/SLA0044
  *
  ******************************************************************************
  */
#include "network_data.h"
#include "ai_platform_interface.h"


AI_ALIGNED(32)
const ai_u64 s_network_weights_array_u64[ 47043 ] = {
  0xbd0e0aee3db7a37fU, 0x3da26e973bb0963aU, 0xbba50db83c3e6955U, 0xbd95570d3d243235U,
  0x3d8122e63d6b6195U, 0xbce66939bc843a37U, 0x3c3c3bd63cb74e7aU, 0x3cd8fae5bd855c83U,
  0x3d63d8433d34d5d0U, 0x3d9f99143d7c942fU, 0x3db8aa973dadb279U, 0xbd3929bd3d278cb1U,
  0x3db1e37bbd78e649U, 0xbd4ac57cbce75371U, 0xbc60b0003dcc2805U, 0x3d7836793d3d2845U,
  0xbd23156e3cceb504U, 0x3d9f2363bd6a45f4U, 0x3da68d9d3b8d26e7U, 0x3c0f15e9bd0ca395U,
  0xbd3ac52f3da49fd3U, 0x3c47fc4cbcc19524U, 0x3d9e8f8e3dd0618aU, 0x3b243c09bd303467U,
  0x3d0d7bb03c8279a0U, 0xbd54223d3d429082U, 0xbd0391003dd1fdb7U, 0xbc8f65ad3c83eefaU,
  0xbcc3eb39bd6423bcU, 0xbd2fd47b3cbc3eeaU, 0x3d52cc6dbd6a214fU, 0xbd156c2abd5ddc97U,
  0xbd83c05abd437c76U, 0x3d897c583d5cfec8U, 0x3ca5f94dbc91cadeU, 0xbd92d8323d7aa25cU,
  0xbc07284a3db28699U, 0x3d3fccb4bb15757cU, 0x3d83eabc3d78d27bU, 0xbd3bd8543d8a821eU,
  0x3d1e95253dcaaafcU, 0xbd43b4463ce4a285U, 0xbd89e91abd130e0aU, 0x3d40fa313d056fc5U,
  0xbd3258e93c913b63U, 0xbd5d94653d941795U, 0xbcc91ae13db49919U, 0x3d14f397bd0ae4fbU,
  0xbd325759bd62b8e8U, 0xbc8128a3bcabf825U, 0x3d6aec97bd4488d4U, 0x3d9513f03d256d61U,
  0x3d6ae12dbd916be5U, 0xbd5a556b3da687c4U, 0xbd917d173d1164cdU, 0x3d5113743c88e5c0U,
  0x3d456c703dc0e0ffU, 0x3d524bb43c8ac064U, 0xbb6c2cfa3dac5d2aU, 0x3d8eff33bd8fd4ccU,
  0x3d6251ed3bea14dbU, 0x3d812ced3dad82e7U, 0x3cfe5d0ebc478ed7U, 0xbc39fa17bda74cf7U,
  0xbac94dff3d837fa0U, 0xbd7593d9bcc6336aU, 0xbcb236e43c7c3e3cU, 0x3d9aedb93d28e78fU,
  0x3dbfb35cbd3f09b3U, 0xbd85f6b1bd940669U, 0xbc8dd6e83c0848b0U, 0xbd8535cfbdaddd99U,
  0xbd92008a3d202477U, 0x3da94e9cbd38f8e5U, 0xbd07a4df3d5aef49U, 0xbd853961bdafa48aU,
  0xbdb770223d486b06U, 0xbdbb7d74bdb82e53U, 0x3c0166d23d6c97bfU, 0xbda6c8173d74bc50U,
  0x3cf56615bd6ab994U, 0x3d89806e3d806dd3U, 0x3d8d7fb2bcbdfbd1U, 0x3c7bff193d833aadU,
  0xbd830e463d6af043U, 0xbda8c1b6bcf2f120U, 0x3c34a406bd94585cU, 0xbd6ab6143d8ac7e4U,
  0x3d9f2c8abd43ffc7U, 0xbd1d1d813bbf56c0U, 0xbd1b2469bd787a10U, 0xbb3d27633d04c45cU,
  0x3ce70d47bdbc98e7U, 0x3aad8c293d96dd44U, 0xbc9e1d8c3d75f784U, 0x3d7592873c48775dU,
  0x3bfcd33b3cd926e2U, 0x3d61cd6cbd15c87fU, 0x3c535d15bd3defbdU, 0xbdb813c73caa010aU,
  0xbb8bf356bc02df13U, 0x3dc7490c3b43182dU, 0xbd5571973cae9b9bU, 0x3dafc6b6bd941b2bU,
  0xbd8bdae6bd72d2e9U, 0x3c262d32bd7f43dfU, 0x3dbd1b86bb12d035U, 0xbd0de6413d7e9d99U,
  0xbcf95d54bcd05c65U, 0x3d83d9a03d9c0a51U, 0x3daad461bd65f88dU, 0x3db52c70bd4b79a3U,
  0x3d32efaebd235b46U, 0xbc90bd0f3da221cfU, 0xbc1fec843c4cdf75U, 0xbca926b1bd3dff35U,
  0x3d91ae94bd8779a9U, 0xbd981371bd40373cU, 0x3dbfa39ebd91ae0aU, 0x3d8212053d97273cU,
  0xbcfc3729bcaec1afU, 0x3d8b1477bd80c2aaU, 0xbd3348023d6165a6U, 0x3d7837ecbd6b8f9bU,
  0xbd35fb813c659bd1U, 0xbd9926a9baa99933U, 0x3b350608bd5f3ec9U, 0x3af81950bc84f64dU,
  0x3dbb4d78bd9bb0caU, 0xbb9a93743da35457U, 0x3b6829be3c9312f9U, 0xbdaca021bccb07ffU,
  0x3d636d54bd9cc3d0U, 0x3d3225843d51c1b3U, 0xbda01c5e3ce15854U, 0xbd5e3f94bd0a08afU,
  0x3acf8a17bd1d78d4U, 0x3dc04b51bd392279U, 0xbd225974bd17d5f0U, 0x3d422f803d82ab88U,
  0xba24fbecbcf9382bU, 0x3d0844abbd184ae8U, 0xbd1b2601bd104af8U, 0x3d49ca7b3db13e74U,
  0x3c2b8754bd9fe996U, 0x3d820afcbcb2fe1aU, 0x3db577553c8ce452U, 0x3c836b813db602efU,
  0xbd6d18f3bd461d60U, 0xbd6ff9c53c1d4218U, 0xbd05813a3dc1449dU, 0xbd4a73ee3cf4a562U,
  0x3d5d1cfbbd0ac2baU, 0xbcd1250bbc540456U, 0xbd3d789c3c93b07fU, 0x3d3db900bd3d6c71U,
  0x3c0bd85bbb2c231cU, 0x3ba98dc9bb437f03U, 0x3d8aa8f73db1fc88U, 0x3d482f2d3d2c018bU,
  0xbcad8c89bd258e31U, 0xbd4b5f513c2b3f67U, 0xbd0f2212bcf94e34U, 0xbcb95aaa3dac6821U,
  0xbcc0fa823dc52835U, 0xbd6b33923d19ba7dU, 0x3dd595fdbd54ffe4U, 0x3d9dcd303dd1af35U,
  0xbd74763abd476f0cU, 0xbcef9ee2bd0e9cadU, 0xbd8dba9b3c210046U, 0x3d6bdab13dcc0374U,
  0xbd0bd71a3d768eeaU, 0x3b9c03a13cc8440bU, 0xbba041c5bc729bbeU, 0x3d21059d3d12009aU,
  0x3d64fec7bc835732U, 0xbc8d386f3c00c38eU, 0x3da4b0e1bda60310U, 0xbc1c17233d876881U,
  0xbd9bee823ce46b94U, 0x3d2750bc3d7eb420U, 0x3dbf0f68bcb637c2U, 0xbd1618b23d8200e3U,
  0xbc084b793c166d40U, 0x3d3366bd3d5110e6U, 0xbd862bb33d341999U, 0xbce06242bd4bd256U,
  0x3dc0dc1b3cb7678dU, 0x3da9787c3d68a08fU, 0x3d90c8f13d957212U, 0xbca494953dce00e9U,
  0xbd81edf03cf2357cU, 0xbc8b60813d191b18U, 0x3d95c466bd8458ecU, 0x3da150fb3ce9325aU,
  0xbcc1ada33dd37975U, 0xbd50772b3dd1f465U, 0x3d0af7243d946ad2U, 0x3ddad347bd2ccc7aU,
  0xbdcd3f5bbd22c4ceU, 0xbd80114fbd9a1a0bU, 0xbddfd537bd5ea640U, 0x3c844388bd987d4cU,
  0xbcdf30f53a91983bU, 0x3c7db482bc1287f8U, 0xbd8c96783ce56c19U, 0xbd776902bd285a5bU,
  0xbd1ed9e83b240065U, 0x3d4a046dbcd884bdU, 0xbc809eeebd377752U, 0x3befff293c75103fU,
  0xbcf83a553ca07303U, 0x3dae2521bbda70ebU, 0xbcfcaa18bd322a4dU, 0x3d4aff04bdb170c1U,
  0x3d8c4ef9bd7965eeU, 0x3d80cf2cbdc43eb0U, 0x3d514c51bd83c581U, 0xbc80afbd3af41a3bU,
  0x3c7c49f8bd9be2d6U, 0x3ca62a36bd2c1bfaU, 0x3d52ff83bc0392f7U, 0xbd8249e3bd206835U,
  0xbd3ff400bdb3cc58U, 0xbdbdcf44bdc3cc67U, 0xbd337091bd5dc8f4U, 0x3d5f47383cee0e1dU,
  0x390f75edbdc43a34U, 0x3d92b0fcbd182879U, 0xbd8e4ac23d945642U, 0x3cdae65fbb863087U,
  0x3cdbbf2b3c42d838U, 0x3d2628863d759b48U, 0x3d97faccbd854234U, 0xbceb3dd53ccc44e6U,
  0xbd57ec823dabdee8U, 0x3b3d196bbd31efccU, 0xbda2c8e63d96a12aU, 0x3cb7eccebd5f39b2U,
  0xbd6726943d3de9c7U, 0xbd83f96139c5f783U, 0x3d89c116bd2960d7U, 0xbc774dc0bd5789ddU,
  0xbd334c2abc073c47U, 0xbd67b185bcdd5057U, 0xbdb2be26bd512d3dU, 0x3cc9d69f3c450608U,
  0x3d6990b23d9d7a53U, 0x3cff79c73d6b9277U, 0x3d267220bb73c322U, 0xbd8d9594bdd12144U,
  0x3d81ede53d6e7543U, 0x3d9f34323cc6cad7U, 0x3c9cc12cbd3d9745U, 0xbbc7b37a3da03b7dU,
  0x3d4a119dbc43efe1U, 0xbd846cd2bc8ba821U, 0x3d7f1d6fbda28185U, 0x3d3ba0473d3b4421U,
  0x3bf217c53d0a9804U, 0xbaef1bb3bd7ba4e4U, 0xbbefb96d3db60947U, 0xbc625de63c3849d0U,
  0x3d080816bcaff370U, 0xbd93d97cbca61242U, 0xbc3f1a5dbd242e58U, 0x3cc37dc23daffa33U,
  0x3cd589ab3dc218bfU, 0x3d7f3cdcbc31bf1aU, 0x3da0aeb63d9cfe23U, 0x3d9142833cf3a049U,
  0x3d9f393dbad3aac0U, 0x3dbc784ebd71c6e9U, 0x3db32043bd103cf4U, 0x3cb4e03abc013369U,
  0x3c9573993ddfb553U, 0xbd1fdf1a3d8fcfa4U, 0x3df86b183de46457U, 0xbcc1ab0b3d7392d6U,
  0x3b524c213c2a443fU, 0x3d76b6cd3c079a33U, 0x3d3db8383dd51c5aU, 0x3e0c1d053d711620U,
  0x3ded3499bcd972a2U, 0xbc9dd990bcffdba8U, 0x3d6b28a03c8927c7U, 0xbc8dc855bc4f7d66U,
  0xbcdab98a3cd9f8b8U, 0x3c84a1773bba1395U, 0x3cd5d2703dcd1920U, 0x3c8039abbcf9f55eU,
  0x3dfe19f03de9e9d3U, 0x3e1660773e0b3619U, 0x3d980b883df73fa5U, 0x3bfeb7a03d5e3571U,
  0x3e19f91f3cfa6c4aU, 0x3d97a9313de04d6fU, 0x3e0f1e783d75fca7U, 0x3e013eab3db3726bU,
  0x3c5db9803da2c224U, 0xbd2c957c3da04c04U, 0xbcf13e96bc889178U, 0xbdb5c0f8bd90151eU,
  0x3d26ccb4bc780db0U, 0x3db0e9f2bd658a58U, 0x3d948b20bd989f2dU, 0x3d2f0a58bda2d1e6U,
  0xba9a96003c46ae18U, 0xbd518110bda289ecU, 0xbda504e3bd0107d4U, 0xbcb8dfb83d7dd150U,
  0xbdb5e471bd18c0adU, 0xbd0b3bbc3b95ccb0U, 0x3d32bfb83c114c70U, 0xbd487f4e3c31c248U,
  0xbd6d6f16bd1013fbU, 0x3da58d50bc63a750U, 0xbd2223b53da686e0U, 0x3db54518bd4b35ceU,
  0xbc5508503dac4754U, 0xbcad5abcbd4f1be3U, 0x3cf4a458bd724e93U, 0x3d49b058bc2c8268U,
  0xbd85adf7bcb0051cU, 0xbb75a220bcc22518U, 0xbd9d9f503d05ff82U, 0xbc3fcf38bdafaf8cU,
  0xbd30721f3d1a64ccU, 0x3d9d3d583d6cc414U, 0xbb4944c03da7ace0U, 0x3db750083d910ab0U,
  0xbd2801c13b224f80U, 0x3da598ecbd216a7cU, 0x3d646e7c3c084358U, 0x3c735958bd751e84U,
  0x3d0e8d2c3d906e7eU, 0xbdad7df53d8c6a5aU, 0xbdaade30bd92c7cdU, 0xbd69dc92bda675f2U,
  0x3d05f5123cb00194U, 0xbd632d453b158360U, 0xbd56b558bd6a2872U, 0x3d372b883bff9e80U,
  0x3ced4a10bda40f7aU, 0xbdabafdebc3fef60U, 0xbc1aaac8bda22723U, 0x3daaad0e3c004e70U,
  0x3db9b97e3cfe8d38U, 0x3d65cff0bd395d2fU, 0xbcbf93d03d68668cU, 0xbcb6ba783d01320cU,
  0xbd7168f5bda6ec60U, 0x3ceb3b40bd2fde4dU, 0x3c8492783d749978U, 0x3d3afc0cbd34c670U,
  0x3db35104bcf04d82U, 0x3d0b5b143c81f5e4U, 0x3ce9dbbc3c5a6608U, 0x3d24d4f03d198378U,
  0xbd431d40bdb5337eU, 0xbdb1002abd770ba2U, 0x3d6dd958bcb112d4U, 0x3d0c9204bc47e2d8U,
  0xbda0b4883d731b6cU, 0xbd8927da3d90b9deU, 0xbc175668bcd0aaa8U, 0xbd8d12a83d88c3faU,
  0xbb01e1803c795498U, 0xbca3bb14bd401a6cU, 0xbc8e19783cd4b36cU, 0xbd4ce072bd7c34dcU,
  0xbcebda703c706a60U, 0x3da2f896ba9f4a00U, 0x3d9b1250bda74d32U, 0xbd1924103d978a9cU,
  0xbd95cd46bd3fb2e8U, 0xbc94f4283d935baeU, 0x3db90ef0bd451df9U, 0xbc5540f0bd8ddeb7U,
  0xbc90c550bccdecd8U, 0xbd55160d3d1b8760U, 0xbc58b1603d089e68U, 0xbd15fa7e3d97a952U,
  0x3d8818e03db12e7aU, 0xbdb18d243d81eaceU, 0x3dabc8e6bd7a7406U, 0x3d0a49f4bd2385feU,
  0x3d7b1db43c8af788U, 0x3db1f33a3c407c58U, 0xbd6e27843d342c30U, 0xbd80626ebb7b4b20U,
  0x3d01258abcc86e78U, 0xbcfb2d5cbd828ceeU, 0x3cd8fcb83d9efc2cU, 0xbdb27387bd5aed7eU,
  0xbb774880bd90ae4eU, 0xbda886bebd89bda8U, 0xbd2d3fc53be7a320U, 0xbd4c9bb93d854d68U,
  0xbd936c533d62ad20U, 0x3d8181be3af02a00U, 0xbd1c1bfe3d05cc44U, 0xbd0f2de93d866268U,
  0x3b32ad003db9af90U, 0x3d235240bd8856f2U, 0xbbbb07c0bc162bb8U, 0xb9ec58003d832202U,
  0x3d9e27423d258aecU, 0x3d84a35a3cd72b68U, 0xbce5afa8bcc44f24U, 0xbbc1fac03cb70dd0U,
  0x3d6f46003d636ae4U, 0xbc525e503cfc821cU, 0x3d6cafd83d15d8dcU, 0xbd530382bc1b45c0U,
  0xbcd7f4203da61544U, 0x3da0c9803d8ec304U, 0xbd9474ce3d80d7aeU, 0x3db2e12c3d0b5a6cU,
  0x3d411df43db81e54U, 0x3c0a46003d60d184U, 0x3d109c243c9d3ef4U, 0x3cea57c83d842d5cU,
  0xbda9bafdbd073cc2U, 0x3c1198283d3f1530U, 0x3d25f99c3db786eaU, 0x3d37fe0cbd598503U,
  0x3d1496d8bcbc6fc8U, 0xbdad5421ba3eef80U, 0x3d4aae343ce80548U, 0xbdb86adc3daebf84U,
  0x3d327568bbd14070U, 0x3d73fd083cb6deecU, 0x3b618a003d8b3734U, 0x3c635858bd90854eU,
  0xbcc7e014bc9bef24U, 0x3b74c8a0bd8e16efU, 0x3d9f09cabdb48a8eU, 0xbd1570e33cbb4f8cU,
  0x3aafee403bca0e70U, 0x3da9798c3dabb9f4U, 0x3da2d26a3b979e90U, 0xbd931c073db1224aU,
  0xbd5c86e2bd75e7bdU, 0x3da9f5123d033c94U, 0xbd24e9de3d949fbeU, 0x3bb5e130bd217f47U,
  0x3d4bd9e03d813368U, 0xbd82678abd28a55fU, 0xbc2dcf78bdb60560U, 0x3d0316cabcd3c730U,
  0xbd83984abd88ee54U, 0xbd04ac3a3aee9e00U, 0xbdacc0273c9039e8U, 0x3db86e463d8e1feeU,
  0xbd983de1bd97830bU, 0x3ca711d0bd89f5e6U, 0x3d79542cbd85992aU, 0xbd3649a2bd0a2df2U,
  0x3bce5c303db46e9aU, 0x3d8127183d19909cU, 0x3cd4491c3c666730U, 0x3da9359a3bdb34c0U,
  0x3da43732bbf56360U, 0x3d8dda4abd3a1b38U, 0x3c83ead43d5ddcfcU, 0x3c57ae883d503908U,
  0xbd41297bbda7e6d3U, 0xbd465c09bbeed4c0U, 0xbd90ca4abd23e9b2U, 0xbc636cb03c005f08U,
  0x3db6df223d66bc10U, 0x3d78197c3d9ecc40U, 0x3d4f437cbce34f00U, 0xbd0d963f3c6bca90U,
  0x3cdd0b40bd13aa78U, 0x3d5c8aacbd3af33dU, 0xbc8faf80bd62ba8aU, 0x3c3b68803da3ade4U,
  0x3bf677b0bdaeb881U, 0xbd80c6babb8e77a0U, 0xbba783e03d88c5daU, 0x3d088dca3d3e6248U,
  0x3d5d01783db3cc26U, 0xbd09fef1bd8f6986U, 0x3dab9d48bd41f85bU, 0xbc2882283c1c9560U,
  0x3d5d6d4c3d23a9a0U, 0xba582e00bd2cba1dU, 0x3cb3aa103d630f5cU, 0xbcc0a32cbc23b550U,
  0xbc7fe990bdb7e17eU, 0x3d8d7e0ebcae8f88U, 0x3da56d82bbfb2640U, 0xbc479120bb9558a0U,
  0xbd933f46bd0091feU, 0x3d9a298a3d5e5948U, 0xbd110b7bbd6acaa1U, 0xbdb37077bda1a7fbU,
  0x3d3f5c18bc50ba70U, 0xbd917dcdbd2cafb8U, 0xbd9b88413cde3bd4U, 0x3d87e492bd24ae90U,
  0x3d02203e3d8e2d9cU, 0x3c37ee48bdb14845U, 0xbd833b68bdb7ae44U, 0x3b65c080bc4b5e58U,
  0x3bd9dd70bdb71cbdU, 0x3d978b883c3db880U, 0xbda32d60bc8b3b14U, 0xba972700bbdaaa60U,
  0xbc44fd203d22b7fcU, 0xbc44ed10bc22d8f8U, 0x3d06c7a0bd2b9e81U, 0x3c2a2420bd9372ceU,
  0xbbe9d2803d912f40U, 0x3d492754bbcfb0d0U, 0xbc3d29883c58ac48U, 0x3ce57fa0bdabdcb7U,
  0xbd168f043d161fb8U, 0x388c0800bdb402c3U, 0x3d8d74083d457cd8U, 0xbd75b0733c519598U,
  0x3d05a08cbd2cefcaU, 0xbd8baca33d904296U, 0xbbade0c0bcfcae54U, 0x3d763b98bd0c102bU,
  0x3d9fe30cbcba7064U, 0x3d140388bd3a9598U, 0x3da45d52bc61a9a8U, 0x3da3b228bcaee3d4U,
  0x3d1588c8bd605206U, 0x3c38c1e8bd2a7f7eU, 0x3da126a23da8896cU, 0xbc2740f83d11b5d0U,
  0xbc59ea383d449688U, 0x3cedc520b9f09d00U, 0xbb84e6a03d1dbfc0U, 0xbd52e2d4bd20d887U,
  0x3d4f1718bd9de939U, 0x3d5998f83db5f64eU, 0xbda2c7e73c8b3100U, 0xbd78b380bd891eccU,
  0xbd4841933c6477d8U, 0xbdad71283d0fd3bcU, 0x3d229840bc247fd8U, 0xbc24e518bbda6710U,
  0xbd1323bebc9923b8U, 0xbda2ccc53c4afe78U, 0xbdaa80063d0420f8U, 0x3bbb0ea0bc9dadc0U,
  0xbd67eb8d3d3abae4U, 0x3db8e9163d75ac10U, 0xbd6c0268bc8e59a8U, 0xbcc0c4583d9bf896U,
  0xbd61b865bce28cc4U, 0xbd336dc6ba157d00U, 0xbd11690fbc998ac4U, 0x3d4ce6a83d84fd60U,
  0xbd261af2bd7b4eb8U, 0xbd4536a5bc9bc4a8U, 0x3db1e64abd95e856U, 0x3da553383d2fd8d4U,
  0x3ca03844bdb15674U, 0xbd77b4acbd4cb34dU, 0xbda5752dbd95292bU, 0x3c3fd768bd189e45U,
  0xbd8b5df6bdb5c0fdU, 0xbd76f60c3cdbcea4U, 0xbd1528da3d50307cU, 0x3cf597b0bc6354d0U,
  0xbdac7ce43ce95a3cU, 0xbd280076bd4f7583U, 0xbcd00c243d642380U, 0x3c6eca383c56a970U,
  0xbcf260ba3cc55798U, 0x3c752f583d854650U, 0x3d3ef6c0bdb606cbU, 0xbc8ba1d83cd9a368U,
  0xbd1c663b3d48cc0cU, 0x3d163b9c3dadd038U, 0xbb405960bd671e04U, 0xbd9148c0bccaf5a0U,
  0x3c3258a0bd1f38f1U, 0x3d66089cbba2f550U, 0xbd732c1cbd4cf2f7U, 0x3d0d4db0bd42c331U,
  0xbd3f3c7a3d5dab88U, 0x3db0f432bdb20899U, 0xbacb0d80bd9630e2U, 0x3d0844023c8d05f0U,
  0xbd0f2e3bbdacd80dU, 0x3c95eab83c5eded8U, 0xbd6a3af1bdac16c5U, 0xbd8a1c2abd9c4a5cU,
  0x3dae8e1cbdb43d97U, 0x3d44d3543d70e27cU, 0xbc538930bdadcd16U, 0x3d8c5caabc81c530U,
  0x3d0609b8bd3b461eU, 0x3d88af173d1dcfb0U, 0x3d58d1583d79ff23U, 0xbd8b346a3cb05934U,
  0xbc5beb0dbd93fe25U, 0x3d6c1bedbd99e76dU, 0x3d3f89edbdc095f5U, 0xbd13903c3d1e32c2U,
  0x3c7974503d8a9265U, 0x3d108de1bd517e08U, 0xbdad910d3bb7c740U, 0x3c8419163c3cbd49U,
  0xbc5bb4f2bd8d890aU, 0x3c39c3493d5dad40U, 0x3cf5c6163d93f6f4U, 0x3da7ccdfbd826277U,
  0x3ce0b45c3dae2cb6U, 0x3d940cea3cc72eccU, 0xbd5a0b2bbd3a6797U, 0x3daf9a7b3cbec8dcU,
  0x3d87943c3dbc6bceU, 0x3ce202423d72f655U, 0xbd92fc1d3d9732e3U, 0xba7b68da3be6c524U,
  0xbc04fa98bcb10e81U, 0x3c89ceca3d4c121dU, 0x3b2e1b363d08c08fU, 0xbd3fa4643d17c2f2U,
  0x3dacae7e3bdfc369U, 0xbb18137dbd4c5981U, 0xbd52887dbcd75a26U, 0xbd49376d3da8acbaU,
  0xbd99cf57bcf49c43U, 0x3d414129bd5081b3U, 0xbcbe43503b90136bU, 0x3cdcd77ebadccaa8U,
  0x3cd7083b3d33a8c6U, 0xbc9ecd353d051f28U, 0x3ccb78643d8d4a1bU, 0x3d698de53c7bdd50U,
  0xbd78ce99bbc5cc6dU, 0x3c62c1103c239c75U, 0xbd53a088bd8911a1U, 0x3d748ed9bda5126aU,
  0xbd41aa573cb1e04fU, 0xbc3356ea3ba68dbdU, 0xbd47c92f3dac551aU, 0xbceb365d3d0dffe6U,
  0x3ae7b16b3cde96a5U, 0xbd98b9fb3ca6c456U, 0xbc90b711bcd0ab88U, 0xbd2341223d131bd7U,
  0x3b2f7dd73d3e70c4U, 0xbc858ecebd8ee41eU, 0xbd1a6106bda598e4U, 0xbd7820793c61a4c9U,
  0x3d1f26d2bcc33aa4U, 0xbc3657a2bae68a78U, 0x3ca6e117bb4651f2U, 0xbd6eae4ebd0796f5U,
  0xbda530c73d08562cU, 0x3c914526bd9f4730U, 0x3c5cdb3bbda47e55U, 0x3d5c07493c7d8932U,
  0x3c2242d13d84ca1bU, 0x3d116effbc9de0bfU, 0xbd1a0026bc02a4feU, 0x3d6b4a78bd93e449U,
  0xbc652f53bd82aa26U, 0x3d8648a03cb36399U, 0x3d6efcf13da63e1cU, 0xbd15cc51bd857a83U,
  0xbd456fd8bd91ed95U, 0xbd9ae45dbd94b06fU, 0xbc4172e5bcf7ee28U, 0xbdb7518a3d00d9ddU,
  0x3c7f77083ca78cc4U, 0x3b98b60a3c2eb9b3U, 0xbc6614253d3c73e6U, 0xbd37b1d2bd09d053U,
  0x3d6f91ac3daa3c56U, 0xbd84f437bcd3f3c7U, 0xbd290c63bd9ad7baU, 0x3d295ce63d96c9bbU,
  0x3dad1e16bdb4b032U, 0x3a6c09543d573a6fU, 0x3d06f73dbdb6881eU, 0xbd8f39abbd8615edU,
  0xbdbd363fbc0078a7U, 0xbd83b283bd82c93fU, 0xbd6f302bbd566484U, 0x3a7a00c9bdb34d1bU,
  0x3d5931583da6b57aU, 0x3ce742313d33947cU, 0x3bef81193d6fbdb2U, 0xbd6ee8113b377ae4U,
  0x3da4b8fabd9bcda6U, 0x3d6dcb41bd6b6b50U, 0xbc95c9313cbc7cb4U, 0x3d380291bd8d5042U,
  0xbd1b7c2e3d607049U, 0x3cf5f0afbd7521bcU, 0xbd06a7933d7759b0U, 0xbcb55d563d83e17dU,
  0x3cf8b0143db1310aU, 0x3d8f20dc3d0c66e6U, 0x3dd48db8bd957668U, 0x3d64ee5ebd81fdc4U,
  0x3d9cd0ab3d829c87U, 0xbc88c6113d3e32aaU, 0x3d51fc86bd0f167dU, 0xbd981ead3c9515d9U,
  0xbd4c13b9bd8e11c5U, 0x3cef0a0ebc7e35d9U, 0xbd58e343bd9cc776U, 0xbd2254a13dcc9670U,
  0xbc9f4cc8bd589f12U, 0x3daf969abc16b1dcU, 0xbcd2ff0c3cf6436aU, 0x3d4511993d835e78U,
  0xbd5c57afbd71b991U, 0x3c9cc339bd446906U, 0x3c3c63c63d70669dU, 0xbcf8b6e23d94abd1U,
  0xbd905d39bcb7e924U, 0xbd9d948f3cef57e3U, 0xbd986886bd96d2e2U, 0x3dacb4253d7ea68aU,
  0xbd4e6513bd893e7eU, 0x3d74c2203c5d4daeU, 0x3dd20f513da5d727U, 0x3d427b3a3d56c576U,
  0x3dc37de43d68e156U, 0xbd330818bd9331bfU, 0x3dadf7d43dce6635U, 0xbcecbcf3bc764a28U,
  0x3a920ff0bc403883U, 0xbd5af1813d319f6fU, 0xbcaeac673cf99285U, 0xbd45cb07bc9dccffU,
  0x3dbce023bcd93f63U, 0x3da7600b3cca3a5dU, 0x3da472253da9fe3dU, 0x3d00a2933ca3b2fcU,
  0x3dab92e53da96cbbU, 0x3d615f3ebda8e27bU, 0xbd0baf9abd2551e6U, 0x3c5350a5bbae04c5U,
  0xbdb88186bd7cb8c5U, 0xbb67b9823cd0a29bU, 0xbd930fbebdb0c6feU, 0x3cb0f6f8bc23bf17U,
  0x3c1d12683b92775cU, 0xbb24608cbca48014U, 0xba705080bcd9eaa3U, 0x3da18b2cbcbdce52U,
  0x3d690aa73d317d6dU, 0x3c3aba90bd660107U, 0xbbe119cc3d297a3fU, 0xbd46f756bbd49e69U,
  0x3dabe6153c8822d1U, 0xbcf6c17b3c8986a6U, 0xbd86fe053d9397adU, 0x3d8d7c15bd1a3a17U,
  0xbd2e04cbbd0dc0d0U, 0x3d33ff1dbd30ade0U, 0x3d910ef03c5d2e90U, 0x3d870ba13dc8634eU,
  0xbbe573643d012c45U, 0xbbf75fbf3d1765c6U, 0x3d9f0158bd6e49d5U, 0x3d93f7adbd73513cU,
  0xbd240892bcd1f2e8U, 0x3d364b5abd84c88aU, 0x3d95ad1bbd8d42bdU, 0xbbd98acbbd9cb95bU,
  0x3d987e0c3d98eff6U, 0x3d82cde63c871653U, 0x3ca1ff0d3d6ac2d5U, 0xbd2535133dbf62f4U,
  0xbce8f316bc55d1c5U, 0x3c2c00433b6c8f27U, 0x3cb48a543d045abdU, 0x3c9ac5c5bcfb754bU,
  0x3d648fef3dc73c39U, 0xbd42721dbd04ad0aU, 0x3cccfe933d97717cU, 0xbd43737cbc62bd6aU,
  0x3d7eacb03d03048dU, 0x3da510d83c7bd1ccU, 0xbc755289bc608cbaU, 0xbd406188bc130aacU,
  0x3d0e63ca3d6117d7U, 0xbda1ba08bc5933f9U, 0xbd3faa02bd17e351U, 0x3d8636edbd9b2ca2U,
  0x3d59720a3b5b68dfU, 0xbd8a7a603da3d1b4U, 0xbd7499a03d9797e2U, 0xbc57fdf6bd81e050U,
  0xbbdeb0c73d7067e2U, 0xbda94d533b59967eU, 0xbd3c8d713d4f6615U, 0xbd93f3adbcf7d54cU,
  0xbd91a2303b97b9eaU, 0xbd663904bd8db7dcU, 0xbc695d56bd33968fU, 0xbcc9d9013cb5b95cU,
  0x3d58ab8cbd234e57U, 0x3bfa00ac3d4e3e75U, 0xbd5389653c09afa2U, 0xbcd1249bbc8d485bU,
  0x3b245bb8bc9f0a9aU, 0x3d798631bd93b414U, 0x3d5b1c75bd1c9c95U, 0xbd7b612abc18421bU,
  0x3d680965bbc7a838U, 0x3d17fb94bda669ceU, 0xbdb15d74bd7330d8U, 0xbc791539bb86e554U,
  0xbd3966bdbd7f2ea1U, 0xbd85dfd83d6427feU, 0xbdbed577bc5d5ec4U, 0x3d5e0fa7bcab1c70U,
  0xbcbdced43d0f80d8U, 0x3d7a62febdb74c29U, 0x3d2f83acbd97cae6U, 0xbd2e6705bc389dbeU,
  0xbdafa64e3d23ad98U, 0xbd4c24d43ce8b2a5U, 0x3cfd9f163d92c89bU, 0xbd64e0c83d642c25U,
  0xbd6a266e3c6c2052U, 0xbc3410c03d1851a2U, 0x3d611ca43d5eef8fU, 0x3d79a1d03d81db81U,
  0x3cd48f123d8ec351U, 0x3d82312c3d861ba2U, 0x3d9e699fbd00cdfcU, 0x3bc4bae2bd99b660U,
  0x3d36bb613cbce1a1U, 0xbd84d496bda7e3c1U, 0xbd3ca99d3d0aac77U, 0x3d023745bc57c69aU,
  0x3d8b9650bcd3baeeU, 0x3d0cf9bf3c477595U, 0x3b988d38bc3778eeU, 0xbd4ea7e1bd22ef64U,
  0xbd9a690ebdc9e0ffU, 0xbd887c793d9a3d04U, 0x3c8ac79ebd8db35dU, 0x3d37d1b4bd98ebbeU,
  0x3d66da6dbd38ce1cU, 0x3ce1bb453d4f77a7U, 0xbd737d4cbd6a98acU, 0x3cab75bdbae5e84cU,
  0x3d458c573d02efbaU, 0xbdbadeb53c80b570U, 0x3c5429e33d9b9ae7U, 0x3d3a4e81bda3b0a0U,
  0x3c8281b4bd610617U, 0xbc93ad663d5cca47U, 0xbd84d92dbca24a4fU, 0xbd49c9e7bd917c2eU,
  0xbd1a6627bd3e3cc6U, 0x3d46db1fbd0569e1U, 0x3d24551e3d10a77dU, 0x3d2fba10bb75c233U,
  0xbb29a40dbc03d7afU, 0x3cac59ed3da31980U, 0xbdc3ac01bc605d52U, 0x3c7f5d7fbd63a1c8U,
  0xbda524933d2cedf7U, 0x3da0792d3da671efU, 0x3d533a6cbd91f304U, 0xbd5c7a6dbd23eae1U,
  0xbc048e5bbccb3e8aU, 0x3d895ad03dad4cafU, 0x3da176373d8ffa9eU, 0x3c0d4d073d56a508U,
  0xbd89e1d03db465caU, 0xbd92e5633c961385U, 0x3d595eef3ce3ac7cU, 0x3d2783643d6db463U,
  0xbd4bb1efbda44db4U, 0x3ba66086bd807010U, 0xbd9a80983dabde30U, 0xbd6560d43d2e7bb8U,
  0x3dcda5a83d8d735eU, 0xbd8e3ded3d6f3246U, 0x3d6f85b33c019376U, 0x3d9bc2113d0b90d4U,
  0x3d25e4d1bba0f4f0U, 0x3c3b651cbd4d6b1cU, 0xbbffefd03da701bcU, 0xbd8b8c873d020161U,
  0xbd9a89e03d849af9U, 0x3d30485a3cf53630U, 0x3d0bc27b3dbfc1f5U, 0xbd34d8b43d3349dcU,
  0x3d59637abba57bb4U, 0x3d0134edbda72606U, 0x3d902eacbd8f01b7U, 0x3cac455fbcf61e99U,
  0x3d0358183c4b34ddU, 0xbd876f0bbd5d311aU, 0x3d889aa33d93ae19U, 0x3cb7a375bda93518U,
  0x3bcb96f2bd054c70U, 0xbda40c2dbb453a63U, 0xbcf03ec43d04e255U, 0x3cbaf63dbd9c09f5U,
  0xbc2472743d8c37d7U, 0xbdc43516bb525072U, 0x3d8a34e2bd2de69eU, 0x3d78501ebc55b5f5U,
  0x3d3d0928bd2b0478U, 0xbd7bbf50bd69f7f7U, 0xbd2a11a4bd07063cU, 0x3b095c273d6770cfU,
  0x3d01e0be3cbdfbd3U, 0xbca16fa73d92a0f2U, 0xbd0c943f3caf80dfU, 0xbd7d4f483ccad404U,
  0xbd67aa1cbd0d36b7U, 0x3d90b946bc73d3d7U, 0xbcf9f658bc8043f1U, 0xba7988f0bdce6235U,
  0xbda2fbb8bdb5e4d9U, 0x3d8bc6073d91d6a6U, 0x3d9bdf403d4489c9U, 0xbc4775103d95526fU,
  0xbd6008eabdc6219fU, 0xbda09e263d80e1a9U, 0x3d5b92c4bdb81c4dU, 0x3cbffe7fbb9872d2U,
  0xbd806137bd9095f7U, 0x3d066c87bd39668cU, 0x3d2eb446bd667507U, 0xbc13f7dbbd3d619eU,
  0x3c4ea7cd3d9827bcU, 0x3d43a956bca834f1U, 0x3c4b9828bb40ba55U, 0xbd0b98f9bd533575U,
  0xbd97d17a3d38fb19U, 0x3cbdf85c3cd983d5U, 0xbd3a68573ce4a284U, 0xbd9c98a33d2b8c16U,
  0x3d2495583d7c7c54U, 0xbd5003f2bd5a1c2dU, 0xbd8ceee3bd2817c7U, 0x3d9b5d9d3ced48e9U,
  0x3dac42b6bdae9282U, 0xbcee112cbc89b4caU, 0xbd84ad5dbc90ca8fU, 0xbcbeeca63d533752U,
  0x3d5fe64e3d8693bbU, 0xbdbab4b8bd4aa98dU, 0xbd4d21ab3d61f913U, 0x3d564fe43cc42f54U,
  0xbd9bb475bd7961f6U, 0xbd9d158bbd8ae250U, 0xbd97d7ec3d555463U, 0xbc8e8de9bdaf8bb0U,
  0x3d23c5e7bdc1cd96U, 0x3a8d9747bd2563c5U, 0xbc9ebe9d3caedf3cU, 0xbd84df41bd97ccceU,
  0xbd9f8a80bd48eac6U, 0xbd5fcfeb3d9f216bU, 0xbd9633e0bda0bdcaU, 0x3aa3ce72bdc80218U,
  0x3d223506bdb4fc09U, 0xbd3533c2bd237ac0U, 0x3d1c959bbd8d8dd5U, 0x3d6a9f6a3d68df22U,
  0x3d63b243bd98001fU, 0xbd714749bd80a68dU, 0x3c55065d3d262082U, 0x3d45d362bc51585aU,
  0x3cbeaf8dbd7109caU, 0x3ccb30e23d7dc3a6U, 0x3c83baabbcf7aec7U, 0x3d956f523d4b69e7U,
  0xbd82b58dbbab41d4U, 0xbb554471bd0e00e0U, 0x3cfa8fcfbd092d32U, 0x3da072fc3c8431c5U,
  0x3dad8bddbc3d41dcU, 0xbda1ae1c3d846675U, 0xbd7c4a5ebc2756ddU, 0x3b93cd233d4dcae0U,
  0x3c863e6ebc08f2cdU, 0x3c6ee0a83d035ac7U, 0xbd9ac5ef3d166dadU, 0xbb8bfd48bca59dddU,
  0x3d9c0585bd811802U, 0x3d7e2399bd6ec22eU, 0x3cb45f6abdae6722U, 0x3d330559bc2d6f30U,
  0x3c857444bd958811U, 0x3d9f373fbd973716U, 0xbc4beab5bc764561U, 0xbcd66b143cf32fd0U,
  0x3c90cd8f3d5cf8cbU, 0x3ce76d8abd54df30U, 0x3c537b5abd896cddU, 0xbd5cb9c43d98ed24U,
  0x3d233eb53d1a1e22U, 0xbda4c3c03da99bfbU, 0x3dac6f33bcab185dU, 0x3ce36f7d3db29bc5U,
  0xbd63ef423dae5b62U, 0x3be69ea83d8775a9U, 0xbd9c4a353d51d72aU, 0x3d8b6103bda485c0U,
  0x3d9b32b6bafdaeefU, 0xbd953ca13d8649b5U, 0xbd28d11cba86d6ffU, 0xbd5746153c55b9feU,
  0x3c20a5083c19c2ebU, 0xbd7a8c29bdc5776dU, 0xbdb7f8133d8d89c2U, 0xbc94ed00bcbc8d1cU,
  0xbd491e74bd737be9U, 0xbd46a573bce9330aU, 0x3d4b170bbda5dd42U, 0x3d9c9f793d4d6038U,
  0x3c76d686bd65c4aaU, 0xbda4175c3ccfcdfdU, 0x3dbf3d673c324f99U, 0xbd2a3763bcdb9f3fU,
  0xbc73d0f03ac6112dU, 0x3dc5e2893c37eb85U, 0xbd1eb6c23dcd5271U, 0x3cf18cb83dd52779U,
  0xbd3b9b953d35ad23U, 0x3b7cc37b3dbbbda3U, 0xbd4bc3043ce6d7a6U, 0x3ceb067b3daeeef0U,
  0x3dc44277bd010d09U, 0xbd5f49f9bd82e418U, 0x3c4140553d6b9a1fU, 0x3d7ac7cabc9248a1U,
  0x3d06493f3ce17c9eU, 0xbd57b06d3b8a74f1U, 0x3dc4b11b3dc5e093U, 0xbd3a5e0d3c5d858aU,
  0x3d55b5d43dbbddd6U, 0xbd453ab23d89c1afU, 0x3dc225e23c9eb48cU, 0x3cd1c9f9bdab6921U,
  0x3d2837d03aa2c6e9U, 0x3d45a82b3d03caaeU, 0xbd69879abd555cbfU, 0x3b878405bd5acf9bU,
  0xbd1d07363ce78325U, 0x3d9613413b4d86adU, 0x3c16c5ca3dcecad2U, 0x3dc033883c5f367eU,
  0xbcfdcf283c7720beU, 0xbd0b7041bd046ef3U, 0xbd8940b53cbd0ff2U, 0x3cdc9e1abd088f39U,
  0x3d0aaf4b3cd54153U, 0x3b5aa4253d9488daU, 0x3c97b979bacd2e4fU, 0x3db914f4bdadd273U,
  0x3db7a1483ce0964aU, 0xbc90c0253d4a3e0fU, 0x3db3c3a43ce3edd4U, 0x3c223c8c3cac720bU,
  0xbcc4cbd83d67ddb6U, 0xbd93a554bd91c4dcU, 0xbdaa4987bd8608faU, 0xbda5a4993caea6e3U,
  0x3dc1b4193d8882a2U, 0x3d8c6165bd1c1e40U, 0xbd2a9d7a3d225db4U, 0xbd5ca01abdaeb4e8U,
  0xbd965930bd9402f0U, 0x3da80bf8bc171799U, 0x3db4b566bd7f48e8U, 0xbc84df0f3d36bea0U,
  0xbc49142e3cb7f534U, 0xbbf11746bc3c55afU, 0x3da6f5fa3dcbce9aU, 0x3d83a41a3daa21b2U,
  0xbc785d0fbd60f156U, 0xbc5dac7d3dc69576U, 0xbce9d4f03d5790dbU, 0x3d958f5abd855edaU,
  0xbda018d93d2c6656U, 0xbd806d3e3dc6a2d8U, 0x3d8789743c83877fU, 0xbce21a683dc8a839U,
  0x3d8505b43c709dfcU, 0x3b888bc4bd6e23e0U, 0x3d897bb13a7c1b64U, 0x3da61691bca116c2U,
  0x3ca3a234bb8b5495U, 0x3d08775d3c710ed0U, 0x3d0ce3a9bd9ceb7aU, 0xbdac7cebbd0c0fb5U,
  0x3cd9ce423d5faf20U, 0x3cbbbfc8bd846913U, 0xbd1afbad3d840612U, 0xbd1a16d8bd023327U,
  0x3da4a0d9bda2397aU, 0x3d776686bb9666feU, 0xbcb62012bd715817U, 0xbcb05edbbd685588U,
  0x3d45775b3cc61072U, 0xbdbbed8fbd7cb761U, 0xbd6dbe1ebcb6da1bU, 0x3d55ccd93cbf1af1U,
  0x3d8678093db376c6U, 0x3ce372f2bda0e5d6U, 0x3d3340dbbcee05dcU, 0xbb328defbd375ea1U,
  0xbcf0cc303d9660acU, 0x3da9fa3c3db4d771U, 0x3c723a8a3d800516U, 0x3d8449d03d404b58U,
  0xbda16ef1bd80f1e9U, 0x3db718ae3d00b27aU, 0x3dc45a573d6d8af8U, 0x3d9eb39b3d85e59fU,
  0x3a0a9f11bda4f167U, 0xbd187c93bd11781dU, 0xbd695cf4bd9fd2a5U, 0x3cef35ffbcfa9fefU,
  0xbda79f183afb275eU, 0x3d5dd9d23d636ac8U, 0xbd8f429cbd7296a9U, 0xbdd2851cbc84f490U,
  0x3d674527bdbf1658U, 0xbdb445c6bdb4a944U, 0x3d2cb67bbd8dab17U, 0x3d94cf09bcd6de0cU,
  0x3d63c44fbd96a0eaU, 0x3c9143803d9329f7U, 0xbd97a8553ce9aefeU, 0xbcd60882bd1d807bU,
  0xbd9e1e1d3d65675fU, 0xbced1ad3bd6c1982U, 0x3cd1375b3cc16b5aU, 0x3d088d873c8ad1f0U,
  0xbd80242cbdaf2fdaU, 0x3c7e88b93d5dde08U, 0x3da55fb03cfbcd02U, 0x3ce1106c3d8f717bU,
  0x3c0b66513d08c2a6U, 0xbbc2e204bd84695dU, 0xbd2da9963d7da7f8U, 0x3d2b2b5bbdb4f286U,
  0x3b72ef9f3d453b9cU, 0xbd257396bd07553dU, 0x3d24ab053c1bc69fU, 0xbd10d84b3d363ba9U,
  0x3d8b46a83c28cb2bU, 0x3d8279efbc8122bfU, 0x3c9ce4253c1554d0U, 0xbd423a8a3d86e0e0U,
  0x3c4e9e93bc88e835U, 0x3d60d4033d49c680U, 0x3d8a025f3d91e7c6U, 0xbda7ff3f3d0c9e58U,
  0x3d1685383d784c8eU, 0xbd764fd03d158daeU, 0x3cccca863ccabc84U, 0x3cece4b6bc94efacU,
  0x3d47ae0cbc2ec39bU, 0xbd9c2284bdb746ddU, 0x3d86bedbbd8f8cfdU, 0x3d2f6b9a3d922fc9U,
  0xbc9c5a09bd434fd2U, 0x3d2eea6d3c1908c8U, 0x3c65220d3c7bfca8U, 0xbd891a233d8949e6U,
  0x3d9eda743d9f870dU, 0xbcf6e6323c8c64b1U, 0x3d298a8b3c524651U, 0xbc6b6f4e3da15144U,
  0x3d46ccf8bdac4df0U, 0xbd69171f3c2c789cU, 0x3c0017bbbd826264U, 0xbb78a506bd8962b7U,
  0x3c05b3e6bb94b7d1U, 0x3da16f113d5ae8d9U, 0x3d34d5803bc6b898U, 0xbc5bc90d3da25b7fU,
  0xbb5de4ee3d313002U, 0xbd631296bd9bbedaU, 0xbd37e81b3abe81d0U, 0x3d66e8eebd90617cU,
  0xbc57c7f0bd40c4ecU, 0x3d176b823d349d2bU, 0x3d9f24b23d705c19U, 0xbda93c0fbd10a4c3U,
  0x3daab5103da5b0f7U, 0xbc737d2abd0c305dU, 0x3d895055bd7cae41U, 0x3db8ece4bd701576U,
  0xbc50b26e3d6116ffU, 0xbcfc62963d0cd274U, 0x3d80070abcfc384aU, 0x3c8d5be9bccac1e9U,
  0xbba1e0da3d8d4d01U, 0x3d26d569bd8cbf7dU, 0x3dca3ea53d42c2d4U, 0xbc1dd18abd340035U,
  0x3b8f3ed73d35b2e9U, 0x3d8ca0463d0bf4e1U, 0xbd6cc2583d403cf4U, 0x3d236b913bbd608cU,
  0xbd43f3803b8aa53eU, 0xbc09cfa4bd9d6990U, 0xbd9af833bdbab651U, 0xbd57a4d63b37a80dU,
  0xbda3dbc1bd031a38U, 0xbd7f6a563d072cecU, 0xbd9110babd8a7665U, 0xbd838b8ebd57d9c4U,
  0xbda5b9d33ba92f28U, 0x3d4033ba3d4cba7dU, 0x3ce7a4193c600bb5U, 0x3d00048abdf54b43U,
  0xbd70a18abdc2ebbbU, 0xbdce15febd608f7dU, 0x3cd36e8fbd857eb2U, 0xbdc1f2c83c2f7433U,
  0x3d3b0c81bdbad217U, 0xbd82a594bdd522cdU, 0x3bc9e70cbdcfb13fU, 0xbce72c08bb57f218U,
  0xbc5d6c25bd59cd5fU, 0xbdd5d742bddde100U, 0xbdf267613c6ce1caU, 0xbd94be5b3c2f5dc0U,
  0xbd42506bbd9b5e90U, 0x3d5e1cc73d19b30dU, 0xbd6c02a7bd7c05edU, 0xbdb8ba993cc7c449U,
  0xbdb1dcfabda52c52U, 0x3d85c7043c19a2c8U, 0x3d411bd13d1f2e74U, 0xbd9afd9d3c6a7ffbU,
  0x3cbc5908bd4174acU, 0xbcb06bd03c9219deU, 0xbcbd328cbda8696cU, 0xbd56b2bc3da72b32U,
  0xbd87b05f3ad505ffU, 0x3aca42ef3d94686fU, 0xbd965dc43c7a5cbeU, 0x3cbed47dbdad01fcU,
  0x3cf2fbda3d69d2fdU, 0xbcf3f6373c8b1e0fU, 0xbd31460dbd831bbeU, 0x3bcdb371bd90e12cU,
  0xbd1ee90c3b029ab4U, 0xbce61ecabd19d2a2U, 0xbccbefa9bcef39f1U, 0x3d9d1b7e3d7cfde1U,
  0xbc922415bc23ed42U, 0xbcd87abc3cc5f9d3U, 0x3da6fae73d69db7fU, 0xbca47a703c97135eU,
  0xbd72e9603d844138U, 0x3db525ae3d9a5b49U, 0xbd43dcdbbc9353d3U, 0x39b225a23d669c18U,
  0xbd80e685bd957689U, 0xbd4ac6c73c6925dcU, 0xbd8c28933ce0892dU, 0x3da2515e3d95dae9U,
  0xbd84fb2cbc8ffc0dU, 0x3d12d5abbb91b3b4U, 0xbd1cf1f9bdabf538U, 0x3d4b4348bdc4651bU,
  0xbdaac83abd7d8164U, 0x3d9b362ebd426d02U, 0x3cde5796bce86b6cU, 0xbca67548bcaecaacU,
  0xbc901019bd2d1336U, 0xbd0bbec6bd3fc5deU, 0x3d99df3ebcce948bU, 0x3be7dd34bd4d8551U,
  0x3d946c6bbc7d9f96U, 0x3d91353bbd811840U, 0xbd3ee6263c91f492U, 0xbd8dca3e3d819cf8U,
  0xbd2e41813d989f62U, 0xbc5771ff3cfbecefU, 0x3ce6bc723d9b2505U, 0xbd1d5a19bd26ea57U,
  0x3da44011bd6499f8U, 0x3ca49cc83daf83a6U, 0x3da304663cc3cf53U, 0x3a1e1b69bcfc6d4bU,
  0xbd0e22aabd786f93U, 0x3d96f11a3cd0d66aU, 0xbbe3e0d6bd57012fU, 0xbc6ab36ebb65e39aU,
  0x3d1a5e6e3d033fd0U, 0x3c90b6a4bb76303aU, 0xbc1d8a97bce6aa55U, 0xb8c6e7363d35f937U,
  0xbd6a6e153dd31facU, 0x3d5241b23deb6cbbU, 0xbca86f2d3be22a30U, 0xbc25aa0c3dfc65a3U,
  0xbcc21ba9bc8c397dU, 0xbd778df53c82304bU, 0xbd472a803ddeacf6U, 0xbd60e9233de14692U,
  0xbaed61353d1c93d9U, 0x3c7509e3bbaa2264U, 0x3d2d36d2bc969fffU, 0xbd119c3e3dd1f3abU,
  0x3b72508bbd522f7bU, 0xbd9a210f3d9be789U, 0xbcab8c53bc9e01f1U, 0xbdc6fc20bd385abdU,
  0x3d18e1d03d84205bU, 0x3d57ba193cf04770U, 0xbd4714cf3d8848c8U, 0xbd268c9a3ccbb065U,
  0xbd350de7bbae380eU, 0xbc9d7b883d75fb2eU, 0xbd12922e3d0d2555U, 0xbcd0c0aabc2fd10dU,
  0xbba684d3bd503ad6U, 0xbc4eff87bd9bad6dU, 0x3d46f4fabd6c337aU, 0x3c9c4af4bdae670dU,
  0x3d93b5813b8414d4U, 0xb8bfa19f3bac3ce0U, 0x3d0621953c270210U, 0xbcb57dc63cbc4831U,
  0xbd8a5ab4bcebca7dU, 0xbd95cc2fbd632d73U, 0xbb02a1603d741013U, 0x3d27add43d7a6508U,
  0x3c929a2abdafdbaeU, 0xbc5d07ad3cdca53bU, 0xbd57c12cbbfc9bd9U, 0xbd500cfcbd812ba2U,
  0x3c44d398bda3f6a0U, 0xbd959cf6bd812862U, 0xbd8b66a5bd189f62U, 0xbca3675a3d25253cU,
  0x3d1bcb8ebcd3f44bU, 0xbd6ac9f4bdaf489dU, 0xbd6bcb8cbda0d74eU, 0x3c92c4ffbdb48e79U,
  0xbd31fdacbd254b16U, 0xbd8f8b07bcb06543U, 0xbda3be57bbe46a6aU, 0x3b623339bce7dee4U,
  0xbd85ffa23d71c7e1U, 0xbd9a7240bdbd0dddU, 0xbd2f010b3d0effbbU, 0xbd3ca14d3c6ac947U,
  0x3c444d3ebcb64860U, 0xbd91a7013d2f3e23U, 0x3d8cf6febd9972e0U, 0x3d244a51bcd510b5U,
  0xbdbc7bfabda35058U, 0xbd98bd863d99a20bU, 0x3d051f25bd89f5d0U, 0x3d468a713d57dfdcU,
  0xbcb9852f3cb7fed4U, 0x3cab6361bd88f88bU, 0xbc906841bcec9ab9U, 0xbc87e1e33d6f0c82U,
  0x3d62fe143da1da31U, 0x3c88a44b3d9115eeU, 0x3d37cd073cf10272U, 0xbcd30c843d2f956bU,
  0x3d86e5953d37cf95U, 0x3c05abd4bd2d8489U, 0xbd77c0e73d935675U, 0xbc9554ddbdbdfe44U,
  0xbb4480a73c269315U, 0xb9ab72e03cc0ab5dU, 0xbd24b13fbd4c5531U, 0x3be1568ebdadc875U,
  0x3ce611783be9a40eU, 0xbdb2ffe63d6bdcbcU, 0xbcb6fe293c8ceea9U, 0xbd42c130bd843492U,
  0xbd6a53a43d1a6f0dU, 0xbd8ab2d23ca53f18U, 0xbd991b9c3d3be69fU, 0xbdc1b4463c7b315eU,
  0x3d85f82d3b14ff37U, 0x3d884f9abdb91c0cU, 0xbcfe7d6f3d766550U, 0xbd5c4bfcbcaa5ac6U,
  0x3dadb68f3d2aedccU, 0x3d415e983dccdf71U, 0x3d458c943d10463eU, 0x3dd4f49a3d83b44cU,
  0x3db8e9bc3dbea8b6U, 0x3dc6669d3dfd3767U, 0xbd0485adbd533241U, 0x3def0ee2bd4d7512U,
  0x3de41d0e3d94c4acU, 0x3d0e8dc43da5c9c5U, 0xbbdd3f483cc9c743U, 0xbd2167d63df1bbbaU,
  0x3da290453d1bf253U, 0xbceff3523db56258U, 0x3d6cccf0bd6a51afU, 0xbd11d5953d84813aU,
  0x3dec81d4bd0e4deeU, 0x3c0f651a3bc1c573U, 0x3da6b7debd843e73U, 0xbc0cde0c3c61c9cdU,
  0xbd02edb5bb75b900U, 0x3d9ddb973dcf0ff7U, 0x3c437b87bd0065b4U, 0xbd2b3cbf3d1a493cU,
  0xbd8fdf683c489d33U, 0x3d158db13dce7481U, 0x3ce12461bd9a46c3U, 0x3d04e974bd829aebU,
  0x3cbf55b3bc71e4a0U, 0xbdb1f1a23d8a67c3U, 0xbd98de6f3d3186b4U, 0xbd2e218dbda945caU,
  0xbdc5036ebd6988c3U, 0xbd80c0d9bd5d4df9U, 0x3cfd2633bdd6cb2bU, 0x3d06e149bd9cb144U,
  0xbda80749bdb83e58U, 0xbcf16a60bd0a805dU, 0xbcfdd3e63d8dbb20U, 0xbcad2dc73d283189U,
  0xbd86519e3d4d4bdeU, 0x3b96a2c3bda9e9eaU, 0xbdb6b863bd5be111U, 0xbd7820363d0fc886U,
  0x3d8e452ebd382c13U, 0x3d3abfe6bcf4897eU, 0x3d617100bcd4e1f6U, 0xbd4174a73ca289c1U,
  0xbc9b03bcbccca0ecU, 0xbc356369bd916a04U, 0x3da5de473dab7783U, 0x3da1444abd991b2eU,
  0xbd15deecbcfd8b9aU, 0xbd1b61143da865a2U, 0xbc32249a3dae96b7U, 0xbce04d943d507cf1U,
  0x3d318fec3cddf0efU, 0xbcacaae53d7f0bccU, 0x3b782d35bcd1ec32U, 0xbd8244e8bd9e8413U,
  0x3c8230fb3d595235U, 0x3ca26fd13d77f37cU, 0xbd3a9ba43bb8ffc0U, 0x3db76fa0bca91bacU,
  0x3d88c681bb843970U, 0x3d2701fd3cff9e27U, 0xbd75e3b93cb9e522U, 0x3d0f797d3d347f0bU,
  0x3d81288abd696d2aU, 0x3cd549503d8dfef2U, 0x3ce1d1733d9c07daU, 0xbd89b3ef3d9e4923U,
  0xbd5530243d425d8aU, 0x3bbaad263ce82ab7U, 0x3bd77fa73d05cb4eU, 0xbc7fb306bda5ac2bU,
  0xbbaa7a123d6f4e24U, 0xbd4aa98fbd029086U, 0xbdb7870c3d1ea367U, 0xbcd0b02abc215b02U,
  0xbbdcc71f3cd09128U, 0xbd93bfc8bd0dbe58U, 0x3bea54243cf5ba31U, 0xbbddacba3ca91134U,
  0xbd21f9183c69f958U, 0xbc8ce99abcb55671U, 0xbda551cebced997dU, 0xbbadd6043d66a9f4U,
  0xbc4125e63bf0ac26U, 0x3c0805383d3a68e0U, 0xbd3bb7be3d07dfa7U, 0x3d7efe49bd8f9dd3U,
  0x3cb44f2fbdaefc0fU, 0x3c39dd163da04d8eU, 0xbd2d56d0bab34a1cU, 0xbd1aa118bdae892cU,
  0x3c384703bda68fc3U, 0xbc8a476bbd2eceabU, 0xbbf447c8bbdd8fa7U, 0x3d5a50a93d4a9b60U,
  0x3d8186b4bd993fb9U, 0xbc26a3803d2479f6U, 0xbc137227bd9edbe8U, 0x3d8404883cb1880cU,
  0xbd8e3cccbbd6f081U, 0xbd4b63493d9d5d16U, 0xbba6f190bd849312U, 0xbcf705203d7cb948U,
  0xbdb114393da6f160U, 0x3d5a7dd9bc1a6f97U, 0xbd29ceafbd87cb85U, 0xbd71c6543dae29e8U,
  0xbd9dbf52bc85b481U, 0xbd10bf98bca303acU, 0xbd4b9a9ebd474a0bU, 0x3d91f9463b512984U,
  0xbd69a6293dac3d1aU, 0x3d955126bd06be52U, 0xbb356994bdba5673U, 0xbda846363d646719U,
  0x3c88596dbd3db144U, 0xbc953844ba7a326bU, 0xbdaa91dc3dae103aU, 0x3d3ad0afbd539a05U,
  0xbd97c5d2bdbc0db2U, 0x3d8c195a3b927dd0U, 0xbc2d3ef73d825f74U, 0x3d945a0abd2c933dU,
  0x3d18408f3d5f174dU, 0xbd978c1b3d5cef7eU, 0x3d01375cbc359b07U, 0x3c7121c43d8ef71cU,
  0xbc9e19bd3d3c1966U, 0xbd8f7a443b275b81U, 0x3d4eaecd3d51ff36U, 0xbdbaab153da0ec8aU,
  0x3ccd9238bdaa9fceU, 0x3ce3013e3cdf19daU, 0x3d906a0c3d447f18U, 0x3d83af44bd8ffc74U,
  0x3cfddda63d119f20U, 0x3d88165abdb3b64eU, 0x3d9473e4b9b6b50dU, 0x3c83645dbcef98c7U,
  0x3c703a55bd7f7c61U, 0xbd1b1d973d1a5979U, 0x3d1207373d9333dcU, 0x3b0cc41d3af6f237U,
  0xbd48930e3d849472U, 0xbbe751423d06c718U, 0xbdb8a88d3d9d932cU, 0x3d8599743d63a849U,
  0xbd6e217abd54f56fU, 0xbcfc03af3cef4dffU, 0xbd21a6933cd48d2dU, 0xbd9808e1bd797d1aU,
  0xbcff71b33d363588U, 0xbd88aa8ebdad7e7fU, 0xbd1ef65c3c09f01cU, 0xbc679e2fbda26a9eU,
  0xbda633ae3d6d61d0U, 0x3af8ee693c6b861aU, 0x3d49b931bd9da4deU, 0xbc99d98b3c6c915eU,
  0xbcf2059bbcf2d4d3U, 0xbdbbfb083c895119U, 0x3d2a0c583bb1d801U, 0xbd1a0cf03d86532aU,
  0x3d1d73bf3cb3a595U, 0xbdc4d26abdb784b4U, 0xbd115b63ba526081U, 0xbb35c8c2bc6c47c6U,
  0xbd233f7ebdacde26U, 0xbd61a548bb945282U, 0x3b7f6bbe3d7177feU, 0xbd88a64abc8b4e4eU,
  0xbc7828363cf3aa97U, 0x3d701ae7bdab0b45U, 0x3d327741bd899732U, 0xbcc3dc9c3ca27a37U,
  0xbd82f5f13d9bcc18U, 0xbdaada51bdc1abcfU, 0xbc6b50a8bd2e832aU, 0xbd8af07e3d40e00eU,
  0x3dabf0aebbb0cc20U, 0xbd1f7e573d5b3cb7U, 0xbd1e6b253d821fbeU, 0xbd2d60d4bc846de9U,
  0xbcd32173bd6ba314U, 0xbba3294cbc938ba1U, 0x3d9b9ab83da793c4U, 0xbd19ea633d7cde07U,
  0xbd89e8d5bd22b8daU, 0xbd161f4b3d8b9cfaU, 0xbd539f613a3a581aU, 0xbd9ff4bfbd9ef54dU,
  0xbd98cec4bc052cbdU, 0xbd833fce3d88f824U, 0xbd27591abc11ee3dU, 0xbdc15479bdc10b79U,
  0xbca55289bd711d4cU, 0x3ccca01bbd26bcc7U, 0xbda609113db14864U, 0x3db404a2bd9ccefdU,
  0x3d091857bda19b95U, 0x3daf52f2bd1d485aU, 0xbd5ea195bda63abaU, 0x3da16e1239296417U,
  0xbda4ffe6bd8f9e49U, 0x3d9e559a3dbb3476U, 0x3da109fe3c24b826U, 0xbd5062b83d154183U,
  0x3d8709793bcf5e3eU, 0x3cb6c08c3daca040U, 0x3d38c4cdbb8138f2U, 0x3cd7fab33ce6213fU,
  0x3caca8ff3d2fff78U, 0x3d5ab18bbd8733a6U, 0xbd242257bc51d485U, 0xbd0d7900bca84ffdU,
  0x3d6a87e0bc4b97e5U, 0x3d224ad83d136ac0U, 0x3dbd2b843d373c54U, 0x3d4461c3bd915044U,
  0x3d4470ffbc7ff5ccU, 0xbcec1e01bd8937caU, 0x3aedffe5bd9ca079U, 0x3d88f6963c05c60cU,
  0x3db688ce3d5044c8U, 0xbd0db8333d999e3aU, 0xbd82d70cbcd7fc19U, 0xbcf4e87a3d3ea065U,
  0xbcaf9761bda85af7U, 0xbd08ef6e3d86308bU, 0xbcbb5403bd67a727U, 0xbce69fbdbc83cecdU,
  0x3cd660ab3dbcdf2eU, 0xbd7ebc573c4bbf68U, 0xbd84ed3fbc8d5420U, 0x3d1cbd773d4fa837U,
  0xbb8852ff3da31328U, 0x3c72fceb3d583128U, 0x3dac08de3dc29a36U, 0x3d1fa0ba3d779606U,
  0xbd7177ccbd672ebcU, 0xbd48a29dbd7351fdU, 0x3d50da02bce2a587U, 0xbd42728e3d6bec27U,
  0x3d25eca4bc8ffa07U, 0x3d8169cebda0fc3cU, 0x3d78e2d13d10dc92U, 0xbca82f43bd5fe112U,
  0x3ce528533d0b6a9dU, 0xbd38a5cf3d40b9a0U, 0xbd49f1473dbc5e16U, 0x3c65215f3aac72b6U,
  0xbd5bda773dbb5a12U, 0x3d53bf393d755056U, 0xbd1250d03d905d0aU, 0xbc1fc6823d4a177aU,
  0x3d90c5823d472ecaU, 0x3dbf2eec3ccc707dU, 0xbcba77f4bd0f670bU, 0xbb8c90403d103fabU,
  0xbd4adfad3d451612U, 0xbd16165ebd7173cbU, 0x3d4e26f9bd9cbe5dU, 0xbd1bd0d2bd92aa05U,
  0xbd79a47fbcd374a6U, 0x3d27c3103d15835bU, 0x3d199739bd9164c9U, 0x3d9756483d8ce04eU,
  0x3d0be5d53d8ac014U, 0x3d340d4a3d9a46b6U, 0x3d6b149bbd0f6384U, 0x3d6cef3ebccf5661U,
  0x3d7d6727bc34bf57U, 0x3dac6a8ebc9c6c3eU, 0xbda72fbe3c48abd3U, 0x3d51baa13c9aac9dU,
  0x3d899af0bc0c5347U, 0xbd35627cbdadb2a1U, 0xbdaba2523d0f5176U, 0x3cfb0093bd532f36U,
  0x3cddcf67bd7fd4dfU, 0xbcd791ecbd209a58U, 0x3d7305d63db87c7aU, 0x3d741f15bd521f20U,
  0x3d027645bd7b98c1U, 0x3d8edb1abbbf0c40U, 0x3d0982ce3da3ac66U, 0xbcbf3a673ba000c0U,
  0xb81a06b1bd8c4e91U, 0xbb96de9e3d836188U, 0xbd5ede713c191270U, 0xbdae2345bcda253dU,
  0xbd3db716bd9c3075U, 0x3d849c51bc44f70bU, 0x3cd5dcfcbd7dbcceU, 0x3d94d5223cccc9ffU,
  0xbd9e89d33d9dc424U, 0xbc10d83f3d941bbcU, 0x3d14e18b3d8c385eU, 0x3d66543a396cf5bfU,
  0xbbc67021bd883355U, 0xbc780db73bad96f0U, 0xbc19838e3cb61e34U, 0x3d28bebcbd498647U,
  0x3b726108bdbd7756U, 0x3d60f858bdbf6f2dU, 0xbd0728bebca06f4fU, 0x3d9ee9323cfc15e2U,
  0xbd2e36ce3d43148eU, 0xbdb3723e3c9742adU, 0x39c3a35f3d8f9738U, 0x3d43f061bda2327eU,
  0x3d988464bd2f30d3U, 0xbc3f520cbc87f3f1U, 0xbd3e113d3cb51815U, 0x3c969091bce83c77U,
  0x3d31a2ec3bf731f3U, 0x3d0f60383d9d035cU, 0xbba2d6dcbc74ee45U, 0xbdad74fa3d867282U,
  0x3da07c82bd2ac9d4U, 0xbd9c37733c3d2585U, 0xbdc0e63dbc7295feU, 0xbcda853fbb3d9cddU,
  0xbbe147f03c61e5edU, 0x3c5ac5e3bc45fb9fU, 0xbd4bda193ce30e46U, 0x3da14a3ebcfc13a7U,
  0x3d2616b53d79db94U, 0xbc7f2320bc808eddU, 0xbd8d08ec3d0a1b85U, 0xbd09afb5bcc9d154U,
  0xbdc0d1e2bd6a4b5eU, 0xbc961fb9bd20418dU, 0x3c3577d93d5a7786U, 0xbd98e9b4bc6422e8U,
  0x3d6c21e33d938572U, 0xbdc14be5bd87e676U, 0x3d1e0ad73c7eec5bU, 0xbcc004dcbd7c153fU,
  0x3b65d7ff3d320352U, 0xbd917cecbda8b441U, 0xbcd865a3bdac36e1U, 0x3d0b46a3bce95eccU,
  0x3d8a689ebd88debcU, 0xbc147ff7bd9951d2U, 0x3d3bd4bcbcf2545bU, 0xbd015c4d3bb0ad52U,
  0x3d4be030bcb60dbbU, 0x3b7c652abda8ee84U, 0xbd6e28423da6e422U, 0x3bbe3f51bd03d445U,
  0x3d53d3a8bd31f83cU, 0x3d45ea413bce6432U, 0xbd1642a9bdb4a3d2U, 0xbdb667223bc0f020U,
  0x3d5a7530bcd59fe4U, 0x3d44d950bdbc8ab5U, 0x3cbc1534bd5c62baU, 0x3ca65aac3d4c07d2U,
  0xbd6da0203d8c9498U, 0xbd6201113c3630e3U, 0xbda161703da77d94U, 0x3bada3e0bba1e5f1U,
  0x3d4bc3513c9a76c3U, 0x3d93d0ee3c63599dU, 0xbd8a1cb13d16b20bU, 0x3ce599d4bd0caaabU,
  0xbcefbdbd3d69d3f2U, 0x3bc1eb9d3d348fe5U, 0xbd7b55eabda94594U, 0x3b00f166bc8a78edU,
  0x3cd1ca8d3ce13627U, 0xbda9f4d33d92e91aU, 0x3daba6a0bd31232bU, 0xbd4a1af13da7b600U,
  0xbdb065e5bdac9777U, 0xbd9515363d855616U, 0xbd4dcd053b4b42dcU, 0xbd9ca8683d367290U,
  0xbbac950e3aa4bacfU, 0xbd43ddd0bdb1b2b8U, 0xbcfd6b23bbb7519aU, 0xbcc759c7bc38e6dcU,
  0x3d032ae83cc9bf65U, 0x3daa3cf43c477855U, 0xbd9e5b183d84da1cU, 0xbd54a4673d09bd90U,
  0xbccf1ba4bc689b0eU, 0x3c2bd6e1bd99bc02U, 0xbd0379d9bd922a95U, 0x3ba27030bcbde3bfU,
  0x3c2856793c9e2778U, 0xbbbf16023d5124ebU, 0xbcb58d47bce7bf48U, 0xbd6f35b5bd9404a8U,
  0x3ccccc5d3cca6fa4U, 0xbd56bb73bcbad040U, 0x3d49d8b33c402032U, 0xbcf3a8b8bd87905bU,
  0x3da6407ebc92288aU, 0xbd8d012fbd99f599U, 0x3d9135763d894da8U, 0xbb97eb703d8792caU,
  0xbd536ed0bd439d3cU, 0x3d3b7773bb7c965fU, 0xbd3ebd36bcd45c04U, 0x3d71a5f4bc52824eU,
  0xbd7a05aabb383218U, 0xbd6d5ed33d7b975eU, 0x3da73a1abcb38373U, 0x3d21c6343daadb30U,
  0xbd4c114e3cf2a013U, 0x3cd53cd5bd80c0e9U, 0x3c32912d3d31c16eU, 0xbd9c0f1e3cabe621U,
  0x3dad43b43cc956c1U, 0xbd63d5363dad7d3cU, 0xbda0b04bbc32bc34U, 0xbd22d15fbc125843U,
  0x3d0f81e0bd83c981U, 0xbba5146cbc8bf80aU, 0xbd8747493d7ee93bU, 0xbd71ba4abda87a50U,
  0xbd8ecba53d655f8bU, 0xbc6a7baebcd619b8U, 0x3cc7e6f1bd72e9bfU, 0x3d9e87403cc3e280U,
  0xbc0da0083caf4238U, 0x3d88e86a3d71ec36U, 0x3c72550b3bceceb0U, 0xbd7450afbd85ee74U,
  0x3da779c0bda2f989U, 0xbd3f66d23d420dbfU, 0xbca75847bb16d756U, 0xbd0e83b83c35454cU,
  0x3a624030bc1355a3U, 0xbdc2afabbd461f5cU, 0xbb034d1abd1fd7a5U, 0x3c970b1cbd99b9c2U,
  0x3ccb069bbc687dbeU, 0xbdb39f053c636426U, 0x3d81a3083d702766U, 0x3d6e78fa3d9b381eU,
  0x3c01d0503d978ef2U, 0x3cd43d473d1c5e72U, 0xbd7086513d90a40aU, 0x3d691e0bbd7add09U,
  0xbd9f991c3cae4e54U, 0x3d3093173c3c11a4U, 0x3da0a022bd98b4c7U, 0xbc90d0f4bd67a247U,
  0xbd01c427bc63a074U, 0x3cb0521d3d3dcd6dU, 0x3cb57fedbd6398e0U, 0x3d3d4d653c2c9e63U,
  0xbdbf1ed1bd988f6dU, 0xbd3c75ed3c8bd65bU, 0xbd2bb2a1bccf80c6U, 0xbda7a88bbc3450faU,
  0x3d35913b3d375939U, 0xbcbadf7f3bd7313cU, 0xbd327483bd93ab0aU, 0x3d2b79113da8c672U,
  0xbcf98f67bdb3801fU, 0xbd97e200bd54fcfdU, 0xbc2c816f3c203829U, 0x3c0b77493cda958cU,
  0x3d73820a3d13ff9bU, 0xbdb8b8ebbd9b35f1U, 0x3d59aa9abd5aa89aU, 0x3dacff04bc9b56d9U,
  0x3d83d4ca3cdf7e2aU, 0xbd86059dbd9eed64U, 0xbd48ab743d401efdU, 0xbdbc4a57bda8a1edU,
  0x3cd84c893dad0b1cU, 0xbc12377fbdb6dc07U, 0x3c65f29d3d1da7fbU, 0xbd9fd22e3d883fdeU,
  0xbca7fdbb3d892be8U, 0xbdb53704bd57df3eU, 0xbda09341bd499360U, 0x3d2aabf0bd1718aeU,
  0xbb13e5733d68a014U, 0xbd641054bd5dd6eeU, 0xbdbf1acbbd081c74U, 0xbc6425413c02bc76U,
  0x3cbe95dd3c8310e1U, 0xbd13a801bc87df0eU, 0xbd3326f33d8eec7aU, 0x3d2ad849bd867b2dU,
  0x3d360a8bbc68092eU, 0x3d8f50303ce0d83fU, 0x3d52af9cbcfeb823U, 0xbd80c099bc3eb814U,
  0xbd43a3de3d1e3a76U, 0x3b879ad03da6c7c0U, 0x3cd8f1fbbdaa67a7U, 0x3d4ffee8bc8cafe9U,
  0x3d6149a03c31f30eU, 0x3d46d0403db487f6U, 0x3d99c586391393c7U, 0xbd11c3d33d82c7deU,
  0x3bb64491bce14a2dU, 0xbda7933b3bdfda9eU, 0x3d99e6fe3c4799f6U, 0x3d98b9003d3b571dU,
  0xbc726933bd2e11ecU, 0xbcd0c73b3c859c13U, 0x3c8d3b2dbd9a3b46U, 0x3d9d30a2bd9de006U,
  0xbbc926e6bd52987dU, 0x3d1ed4493cce9ef3U, 0xbd8d157c3c090bc7U, 0xbba3adc73cce0213U,
  0x3ce0682f3daffb88U, 0x3d92d700ba994ed3U, 0xbd4a1953bcda0384U, 0xbd81a19c3d6fdaffU,
  0x3cc4ebcfbcffd9e4U, 0xbb5330903d3eec60U, 0xbd16c3bc3d9e132dU, 0x3c66df36bd7aa6b6U,
  0xbcbd2c753d84d189U, 0xbced1a69bd069e7cU, 0xbd23498fbc2cfedaU, 0x3cbb8767bd33fd39U,
  0xbd9ae22eba360b04U, 0x3d8027cd3d70eb89U, 0xbb86865e3dbae02eU, 0x3d7944f93d033d3fU,
  0x3d9f59443d360f27U, 0xbb3d071dbda4af74U, 0xbae8ecf53d885532U, 0xbce93e75bd56f89fU,
  0xbc8af005bc61f2eeU, 0x3c606d4a3c35ab74U, 0x3d2c7d373bf2eec3U, 0x3c36cee239e70f81U,
  0xbd8273faba8d4364U, 0x3da7d3163baaa861U, 0x3d99418abc922b4cU, 0xbd3650883cf2a8b8U,
  0x3d878272bcefccfbU, 0x3af64a973d161350U, 0xbc91b8723d9faa02U, 0xbd01d2d03c33ace2U,
  0xbb91ef21bdaeb7faU, 0x3c2de6bc3d03144fU, 0x3c072c4cbd273aa7U, 0x3d4efce4bd853804U,
  0x3c37b9a63d98a234U, 0xbcd8b065bd0bfc8cU, 0xbd7d395c3caa73f7U, 0x3d64d07d3ce474a8U,
  0xbd8889eebba25f9eU, 0xbce0cf623d9de8d4U, 0xbbed760bbd843c0fU, 0x3d3002c13d475f22U,
  0xbd953d2e3c26e967U, 0x3d70180e3d1d6773U, 0xbda93a14bd25052eU, 0x3ac437793d67572dU,
  0x3d5ef8283d86cd0fU, 0x3c52cf2abd6757c4U, 0xbda0559c3d912cdcU, 0xbd02b089bc992281U,
  0xbd39d0bebc8f2a45U, 0x3dae8a703c376fb3U, 0xbdc3f8fc3d91a080U, 0xbda03770baebddbfU,
  0xbcb41f273c47ac44U, 0x3d8aed0ebdb66f5cU, 0x3d78221a3c99bfd9U, 0x3c7ce2d8bca7751aU,
  0xbc1aa6c9bd9e151cU, 0xbd1a1bfc3d7c297eU, 0xbda46303bc48b7e5U, 0x3d14555cbcd9e5f8U,
  0xbcb1937d3c0ed67bU, 0xbc9beb393c8f0d89U, 0xbb8c33403d8d4326U, 0xbcebd3743d4754f0U,
  0xbd989a8abbdb623fU, 0x3c9887edbd2c1861U, 0xbd818c4d3db73eacU, 0xbd8ae898bd95492aU,
  0xbcb729593d7a3a6bU, 0x3cbf5b6d3dbaca64U, 0xbd80ce58bd8b8a16U, 0x3da7b3323cf70d91U,
  0xbcd66f77385c4859U, 0x3d0e91a4bd8ce6b8U, 0x3d7f6a443db925acU, 0xbd6e8522bce5b257U,
  0xbda927bb3b908c9eU, 0xbda485923d113d73U, 0x3cb0b3fdbd69accaU, 0x3d6f6d14bc8316ecU,
  0x3d32b8a03d8a4198U, 0xbd217fa1bcf1878fU, 0x3d361f38bd6f02cbU, 0xbd850045bd2a4da5U,
  0xbda95b35bc5ffd5dU, 0x3b3c1e11bd8ad471U, 0xbcdb286fbca4ea7fU, 0x3d841a0abca1372bU,
  0xbda53cdcbd5740b1U, 0x3d1b29023c89b9f1U, 0xbd6100c3bb8764a8U, 0xbd987f3d3cee9424U,
  0x3d5f73ddb95bf8eaU, 0x3da0dbd6bd764991U, 0xbd6e5986bdad2a71U, 0xbcc258bbbc817445U,
  0xbdb1881f3d9a3522U, 0xbaa6d9b33d9e62d2U, 0x3d900d7cbc93bbecU, 0xbb802f563d126506U,
  0x3d9879ec3cd1d7cdU, 0x3d2fa3193c98ec25U, 0xbbc12a2a3c2b32c3U, 0x3da87220bd1e6f29U,
  0xbd8166a43d0de121U, 0x3d740b11bc4c7d3cU, 0x3cd87585bda1f069U, 0xbda9bddebb823342U,
  0x3d5f133e3cf0dd07U, 0xbdb203883d00d29aU, 0xbc7ff136ba101d8fU, 0xbda18090bdc0f47eU,
  0xbd9a5a32bdc19639U, 0xbc62176f3d02feb0U, 0x3d7a7ae33d6f7773U, 0x3cbbeb2d3d5699afU,
  0xbc47e10e3c96b9a5U, 0x3cb9d939bbb0ae4fU, 0x3d8139583d159f40U, 0xbdb78f9f3d7e54a6U,
  0xbd6379633c5e23b4U, 0x3cfb8d1a3d5abaadU, 0x3d3828bdbdba83faU, 0xbce1d1c83d901a48U,
  0x3c5091543c1c3da9U, 0xbbbefa8dbd94e2a6U, 0xbd89887dbc81fec3U, 0x3d9dd2eabd09cf8eU,
  0xbd7cbbeebdba62ddU, 0xbd3c9b303a04d22fU, 0xbcddae8bbda2c74fU, 0xbcd18cc63cdca0b0U,
  0x3caf88fdbdadb524U, 0xbd9074843d5a1705U, 0x3d3fb938bcda98c3U, 0xbc82f3c0bd7a6296U,
  0xbd4f0816bc5adfceU, 0x3c74ee3b3ce768e1U, 0x3d37f8863cadd514U, 0xbdb3acaf3d0c975cU,
  0x3d785d853ceee517U, 0x3d40d2f3bd7e6afbU, 0xbd811ea83cc0c38dU, 0xbd819d3cbd84c32cU,
  0xbac9afbcbd7fb5c8U, 0x3d2b14233d6f2480U, 0xbd149adcbcf4d76fU, 0xbbf0efdf3d275816U,
  0x3cd4bbedbcf8c5e8U, 0xbd937b9ebdad1656U, 0x3b5c20823ba2c273U, 0xbcde8f3b3d86b79aU,
  0x3c387614bd8d8e1bU, 0xbbea09be3d902a64U, 0xbd1648e63cdeb7e7U, 0xbd924e06bc7a88a6U,
  0x3c1a173b3d6d073eU, 0xbd35011bbc19aa0cU, 0xbc65658dbd346d98U, 0xbc85506b3da8ea90U,
  0x3da4e372bd85d9e1U, 0xbd191600bdb58198U, 0x3d4b7b6ebd4d029bU, 0xbd83d804bd95cd78U,
  0x3da6dea6bcf1fde3U, 0x3bf8a5153d92dcfcU, 0xbdb96c60bd113258U, 0x3ccdba293d85f360U,
  0x3d732d9a3b114a28U, 0xbd9c118f3d905aeaU, 0x3cbc800d3d04db38U, 0xbaa59e74bc76698dU,
  0xbb9c5dde3d748d2eU, 0xbd9a6ac4bd975a27U, 0x3bdb6623bd0d1ef8U, 0xbc60ebadbd7ff958U,
  0x3d0dc3273c9c41cfU, 0x3dae29d33a9a8fdeU, 0x3daa5f603d34f58dU, 0x3db23ce13be3ddc2U,
  0xbc9049c63cbe17b4U, 0x3dce36d93ca5afb1U, 0xbc864cbc3c1d83fcU, 0xbc4ba8d1bc9cc608U,
  0xbd46ba5e3c39ab6bU, 0x3d612919bd17586aU, 0xbd964a873d8b9304U, 0x3d550db0bd2eab32U,
  0xbcf5fd2f3d9b4bb9U, 0xbd2a14fdbc4cf053U, 0x3cbbdf443b9e9027U, 0x3cdab607bd049170U,
  0x3d8e43e63d618deeU, 0x3d6dc2cf3d68cb91U, 0xbd16bb46bd79b162U, 0x3c97ae76bd94ae97U,
  0xbbff0b1a3cc2ae3bU, 0xbd4f6e423d80d767U, 0xbd9105193cb36234U, 0xbc9987ffbd3b288dU,
  0x3d2263edbdb981a5U, 0xbda44fb0bd1dda9dU, 0xbd4bb2bcbda5de46U, 0x3d84e7f1bbf16303U,
  0xbdcd618fbd2183bbU, 0x3c23af5b3d188900U, 0xbb973f9abd6fb70fU, 0xbc3f2b9bbd864332U,
  0xbbb16778bbaae8b7U, 0xbd970a46bc5e2cc4U, 0x3d3409ec3d66fd10U, 0xbc4abe123ca85c1bU,
  0x3ccbafe6bdc61185U, 0xbbd34cc2bdd69f01U, 0xbd868912bdb48f7cU, 0xbca9e82cbc5e9036U,
  0x3d7f4c15bd83c796U, 0x3c3d3dc13d0f7f4bU, 0x3c6ea3e4bd9e19efU, 0xbd12b55b3cf17934U,
  0xbd5f30213d4f4e3fU, 0xbd0bc7c4bd55b3e6U, 0xbc5b6acb3c927780U, 0x3cad9a0abd186f1eU,
  0x3d5b1279bccc792dU, 0x3c8e269bbd6bf544U, 0x3d9205df3ce1a8b2U, 0xbcb55908bcee9766U,
  0xbc9ffda9bdb6e98dU, 0xbd8fb447bbe53896U, 0x3ce3bcd9bcef8877U, 0xbc92bccabbf2c0d7U,
  0xbd2a43f63d36d0baU, 0x3d9efd403d9151ccU, 0xbd5fc340bc0b0ad1U, 0xbd01f5333ba4498bU,
  0xbdbe7da1bd5c58bdU, 0xbd1a98c43d275d53U, 0xbd115cdebd4572cdU, 0x3d7909413da85f20U,
  0x3da526b5bd0ec16cU, 0xbdabd1223cc9e34bU, 0x3bcda8aebaefca20U, 0x3da92d093d95f2a7U,
  0xbd9b1f093d8c4eddU, 0x3c8d8a66bcdc8dc6U, 0xbcdba443bc2828c6U, 0x3d87cb223c7bdb24U,
  0xbd91be45bd6d873cU, 0xbd5a912dbce303d5U, 0xbdb6b6d2bd91b488U, 0xbd8cc29cbcd362c2U,
  0x3dadc463bbe0612aU, 0xbc64c3973d62fcbcU, 0xbc1ecd4f3d816cc9U, 0xbd74fec8bc8aff25U,
  0x3d94f0c43d893146U, 0x3d9957233cfc069eU, 0x3d867b9d3d669263U, 0xbd88c29f3c510abbU,
  0xbc056515bc85da4eU, 0x3d8ae2f5bccd74fbU, 0x3db061b9ba518d18U, 0x3d5165013d8cea29U,
  0x3dc556373dba559fU, 0x3d519d12bd7f226aU, 0x3d8521bf3d1d5569U, 0x3d3befcd3daff687U,
  0x3d59ed453d62fa33U, 0xbcdfef29bd86099dU, 0x3dc0745dbd8d8084U, 0xbc427cabbd39d012U,
  0x3db9070f3d475907U, 0xbd73e5a63c705738U, 0x3d1a89913daceca5U, 0xbd8e2d033d971523U,
  0x3d7024b3bc198d85U, 0x3da6a4543cafd02fU, 0x3db86f893d0bb648U, 0x3d6e8fe23da0b4aeU,
  0xbdae7f17bda0459cU, 0x3d3e313fbd5a1560U, 0xbd8d7a753d77097bU, 0x3c896eba3cf6aaa9U,
  0xbc0dac533c0c6131U, 0x3d566f90bcd86f44U, 0xbd87cd823d79c359U, 0xbbf3e50e3d3df97aU,
  0x3dbb0c19bd805849U, 0xbca958ecbc3ab97eU, 0xb9af5fd6bd4e7374U, 0x3d86e3443cd73504U,
  0x3b12a720bcc84bdfU, 0x3d252b853cf5dc8fU, 0x3d960d053c803905U, 0xbd6c7c423c726d8eU,
  0xbd9af05e3bfcffbbU, 0x3a759155bcf36aa0U, 0x3d91bdfe3ce09812U, 0x3db83809bdb5b73eU,
  0xbc2475c1bdb6c88cU, 0x3da9dc103d8d35e3U, 0xbbfac106bc81553cU, 0xbce1248abda33db6U,
  0x3d947dd33ce84eadU, 0x3d98742bbd3e3d26U, 0xbd17d7263d70d2ecU, 0xbcc282d9bd55e7b0U,
  0xbd1bb8683db2676cU, 0x3ccc6e78bd90bb20U, 0x3cd32fb23d685373U, 0x3d3f58153db21d25U,
  0xbd9363893d00ca8cU, 0xbc9683473da28702U, 0x3d430f30bce7b669U, 0x3d89a5d4bc917fb0U,
  0xbdb0008a3d918456U, 0xbdbcefa7bd2ac780U, 0xbda926f0bda4c57cU, 0xbd9ba0e8bcf66b2eU,
  0x3d98ae363d59cdb8U, 0xbd480d213d696dfeU, 0x3d07c9e9bcaeabe8U, 0x3d47b6c6bdc0d0b7U,
  0xbd4f6f0abc0535e0U, 0x3d3a235e3d0c79c6U, 0xbdbffeb5bd8394f0U, 0xbd574c4c3cb345bdU,
  0x3d2ec3793d89ee5dU, 0xbd7439373cc28233U, 0xbdac2fd3bd9e305cU, 0x3da09b9a3d69cad9U,
  0x3c9bddd9bdb4822bU, 0xbda0709e3d8379fdU, 0x3da1b445badd7306U, 0xbd03e8a1bd5af77eU,
  0x3c86647dbd4270e4U, 0x3bf2efc0bce49d5dU, 0xbdb03cd8bb5903dcU, 0xbd570033bcf8607bU,
  0x3cecf4383d967999U, 0xbd49f5afbc85d936U, 0xbdc3131ebd6e8246U, 0xbdb5c6673d7eb9beU,
  0xbd50ff423d5feb76U, 0x3d2fa0f5bd93d812U, 0xbdb04ff83cb4471fU, 0x3d6e779b3c1ec990U,
  0x3ce1481ebc96fcbdU, 0x3cc202493b607ed9U, 0x3c535045bd97e78eU, 0x3c3e907bbd92f3a3U,
  0x3cfcf9f53d63cad7U, 0x3c98e5a6bd389719U, 0x3c115710bd896d57U, 0xbcaeecd9bcb16224U,
  0xbd3f91fbbcd103bdU, 0xbdadfa483d57ea96U, 0x3be5cb2ebdba13d8U, 0x3c5f0e38bd05cabeU,
  0x3b103f47bcd9bf09U, 0x3d5c1d4fbd4aa89eU, 0xbd97159abd26f43eU, 0xbdb53fb83c1e828bU,
  0xbd5fb1733da4a6e2U, 0x3d9c844bbd956729U, 0xbd9dc3533d467b1dU, 0x3ce9ee3b3d8089b6U,
  0x3d0efa35bd1acf33U, 0xbced7ccebc60a545U, 0x3d80830abccaad37U, 0x3d9da97a3b9cfca9U,
  0x3d88b5633d9c8debU, 0xbd842280bdad8fcfU, 0xbdb4f8d93c984b0cU, 0xbd2a4adabb941c94U,
  0x3d9190d23d8503cdU, 0xbd06a3ca3d00f1a5U, 0x3d7744c33d8771f5U, 0x3c855c773cae2df4U,
  0x3d7c19b23df053bcU, 0xbd1acacc3d4fe474U, 0x3dd8630a3bb63c16U, 0x3d1f062a3a7bceb5U,
  0x3d9a1d25bd469046U, 0xbd06e4d5bd185df6U, 0xbc7b99543cd86a55U, 0xbd9218d3bd1e827cU,
  0xbc3330473d787bceU, 0xbc18148fbd8644f8U, 0x3db3d2e13d15c04eU, 0x3db5caf63dac04f0U,
  0x3d238c4b3d205de1U, 0xbabd604e3da8c68fU, 0x3da7f66abd1ff68eU, 0x3d80f26b3b557e91U,
  0x3d5564a13deb20c7U, 0x3d473a4cbd913fb3U, 0xbd8d11773ced8c32U, 0xba4e032f3d78cd45U,
  0xbd362b08bd4c2490U, 0x3d11b2cc3d5add00U, 0xbd0d0e4f3d9f4b09U, 0x3d9576b7bd8c901eU,
  0xbd82b3cbbd20b959U, 0xbd27f6003d386cf9U, 0xbd4e44303cc4a488U, 0xbd2db2ea3bc60e9aU,
  0x3d88def6bd122ad0U, 0x3d428790bdba0572U, 0xbd946af63d9ca21cU, 0x3d9c614bbd8b6f8bU,
  0xbd7837bebcf5fd5bU, 0xbd32cdca3d94bb83U, 0xbba0ae83bd8044e1U, 0xbd23b7533d52ccc6U,
  0xbc9840573d5dcfc3U, 0x3d7f56133c595d17U, 0x3d20c8b1bd3ee409U, 0xbd1b25493d841354U,
  0xbd231df33ccce261U, 0xbc80e616bdbceaaeU, 0xbd259d7f3cb29ad9U, 0xbdaafc23bb7cb66fU,
  0x3d1686513c618605U, 0x3dab69633ba39d2eU, 0xbd6446273cf3839eU, 0xbc54dee8bd94e6f6U,
  0x3d83f7da3d20fbc5U, 0x3ab5961c3da4c193U, 0xbce12959bd84c43dU, 0xbd89caa6bd2f9be5U,
  0xbc7f1cbabc15a1faU, 0x3d30f95d3d3a2e29U, 0xbd863f6c3db68f09U, 0xbce38e753d8dc2e8U,
  0xbd880392bd8a798bU, 0x3d92c5223db42164U, 0x3d9c5a27bc4d3c4cU, 0xbd1a5ba1bdabf701U,
  0xbc98365fbd5a86a0U, 0x3d4fc367bcc2ce93U, 0x3d961c4abcde1d5aU, 0xbd2f68debd13ae47U,
  0x3da0bcbeba2bcfc1U, 0x3d340e35bda9768cU, 0x3d6df13d3cc6181dU, 0xbd66d34d3d8bbc5aU,
  0xbd7a712ebd42ccc4U, 0x3d6e093abdb4ca3dU, 0x3d8b3cb03d70a1a2U, 0xbccb4627bda76df1U,
  0x3c94860b3c1aae13U, 0xbd52c89ebbc6b75aU, 0x3d19d2313d88623eU, 0xbd384998bdbf7f71U,
  0xbcc419f83c93dfb4U, 0xbd503236bcbb6e3bU, 0xbdc072ef3d136433U, 0xbc96bb16bd54e9b5U,
  0x3d72f2c93d446e30U, 0xbdc4e6c5bc92cabdU, 0xbc9426b7bdcc8c23U, 0x3c6e72e8bdac924cU,
  0xbd94502cbde3253cU, 0x3d2f97a43d6f4239U, 0x3cd94df2bda268f5U, 0x3d43340fbd4b3adaU,
  0xbdb1e7db3d2597ceU, 0x3d8675c83ce839cfU, 0xbdb0d4ae3a39faa0U, 0xbbd315a7bdb26421U,
  0xbd3bd4babd960f64U, 0xbdb53e16bd8e3afbU, 0xbca7e115bb05d36bU, 0x3b017068bd60ed2cU,
  0xbd8565ee3b25c22eU, 0x3b7fdecf3d349b6aU, 0xbc01448cbcf690f6U, 0xbcff9654bd23543cU,
  0xbd17f331bc1834f5U, 0xbce2de92bc58b363U, 0xbd2da7953dabef51U, 0xbcfc1e943d619beaU,
  0xbd77abc9bce9f2d8U, 0x3d0356a63d9a5c82U, 0x3c0ce0c2bd661428U, 0x3d87bb573d9dc157U,
  0xbda59d5ebd26d5bdU, 0xbd3db60bbd5e7988U, 0xbc155d953be9a9c8U, 0x3d9da2d4bd1b8068U,
  0xbd6324bfbc8aecfaU, 0x3ce5ab2a3c213fd6U, 0xbc9b7ddebd245d54U, 0xbccc4712bccd10a9U,
  0x3d83ba873d946cccU, 0xbb94d5393c0c61d8U, 0x3d7bed21bca0752cU, 0xbcc055683d3324f7U,
  0x3bbdfa223d055472U, 0xbdad03673d8c49e1U, 0xbd3e4198bda24d01U, 0x3d02c1ac3d0a894dU,
  0xbd8c4001bbf43cc2U, 0xbd9353343d02d9c5U, 0x3dad48d7bd8990edU, 0xbdb0e87fbdb4651dU,
  0x3ca9ce7eba919987U, 0xbc59cded3d845194U, 0x3d6ed7f63c115768U, 0xbcf850ccbdc53709U,
  0xbd3980c23bf727f2U, 0xbd4ed008bc020b83U, 0xbd03b994bda56764U, 0xbd9b5c7c3c58c523U,
  0xbca8bd12bcb048efU, 0xbcba0c2abcf5a24aU, 0x3d41c21fbdc09502U, 0x3cccc6743d852eb6U,
  0xbdbd40ad3dabf96eU, 0x3d898f703d57ce22U, 0xbd8ff4833d96797fU, 0x3cf83a33bdafe4c8U,
  0xbd0466643d20fadaU, 0xbbe4a3cd3d010a63U, 0x3d7589efbd54942fU, 0x3d5a1fd5bd903e9aU,
  0xbd080df3bd3ff10eU, 0x3ca675973c746278U, 0x3d27c3083bcb1410U, 0x3d96d8e13dae4fd2U,
  0xbdb64458bc8d1eafU, 0xbd1ee4e7bc524fa6U, 0x3bc7d66d3d4000aaU, 0xbdad2dfebd0f47c0U,
  0x3d9213cfbd4e603cU, 0xbce19a55bdbf6392U, 0x3d30b8d13d88572cU, 0x3d8cc55cbce82845U,
  0xbd790ffcbda51f33U, 0xbda78fabbd9eb2cfU, 0x3d9c0cf0bd6bd4e9U, 0x3d17fcd23cd73ac4U,
  0xbda55aaebdc37dfbU, 0xbd2226abbd7cd039U, 0xbc205aafbd9fef12U, 0x3cfff9f83d1ccee7U,
  0x3c67f510bcae5a07U, 0xbc8ce756bd9f8324U, 0x3d9becb4bc0a0761U, 0x3cca62613da985e0U,
  0xbc05283eb9e050bcU, 0xbd716a0b3d6691edU, 0x3d8c247a3d7d47c5U, 0xbdb5448a3d2ce49dU,
  0x3d6a888cbc0af04cU, 0xbdb581c53d32efc6U, 0xbd7faa19bdb099beU, 0x3d5720893cc39f00U,
  0xbdb771023c34d296U, 0xbd1e241fbd162706U, 0xbadee5afbd085456U, 0xbd9e79463b93ef42U,
  0x3cc4a0b5bca1a049U, 0xbc10aba83d99bccaU, 0xbc90ec003aa793c4U, 0xbd166ea7bd9d5fc6U,
  0x3d9cb4e43d907fb5U, 0xbd5a5b043da27550U, 0xbd374f483bbca6d6U, 0x3d4d42693d1ee261U,
  0x3ca4fe6e3c8b8b12U, 0xbcdda9ee3c8df557U, 0xbd97ab103d837c99U, 0xbd87d8b7bdbc021bU,
  0xbca0031ebd546558U, 0xbc71524cbd6777deU, 0x3db4b064bdaf64a6U, 0xbd3e663dbd8a1339U,
  0xbd406ac93d77a6eeU, 0xbdaf5769bc15a503U, 0x3da1a76ebd84037cU, 0x3d710160bd7a02baU,
  0x3c5ad7e8bd820074U, 0x3d4220c5bd8a8a1aU, 0x3b808240bb7c3a62U, 0x3d63b2a3bda6347dU,
  0xbd8577603d97f013U, 0x3d3a5d203c2d06b7U, 0x3c93cc95bd8c3f6bU, 0x3c88fc84bd342829U,
  0xbd1d6628bba80373U, 0x3d0f25d63da850e4U, 0xbd7c991e3d0e59dcU, 0xbd4385723dba042bU,
  0xbd6bc04abd4d4d0fU, 0x3d8acc7e3da775c9U, 0x3cc4071e3dafcbb8U, 0x3d8236723d01da55U,
  0x3dc3142d3b7660ccU, 0x3d866a05bd9b08b5U, 0x3d8b7a213dc698feU, 0x3d9d44b43c354257U,
  0xbd05d1a33dae9ce1U, 0xbc976a60bce8c8f7U, 0xbc8704dc3dc092ccU, 0xbd159eda3d5fa3eaU,
  0x3dc0f8c5bd81e45dU, 0xbda148813d861b2eU, 0x3d358602bbfed65dU, 0xbca6c3b53d128b0cU,
  0x3ac3bdb83d3c2648U, 0x3dbe7a89bdad0b79U, 0xbd52b3003d8b1798U, 0xbd815813bd97e55cU,
  0xbd12365f3d292584U, 0xbc9122853bce083fU, 0xbbda850dbd073895U, 0xb9c54f06bd6bc3ddU,
  0xbda86d513c31b40dU, 0x3da63ba53c32c256U, 0x3dab371d3b5b0d66U, 0xbd24cf88bd8ca56eU,
  0xbd008f3b3d56dc83U, 0xbba904adbd80d42eU, 0xbd265fc83c7dc589U, 0x3ca0745fbc41e767U,
  0x3c871c913d9c9bf9U, 0x3cd61698bd12ecdbU, 0xbd610b683d3d84abU, 0x3dbeb9903dc0a6aeU,
  0xbd19b93fbd93f79fU, 0xbcc0eb7abc94a4c4U, 0x3d0bd102bd34d298U, 0x3d8e5f523c1d7d35U,
  0xbd6756adbc6afe72U, 0x3d9b34aebd819655U, 0xbd51bc813d25d0d6U, 0xbd3c11923cdc7769U,
  0xbd34962e3c6c4be3U, 0xbd32a6b13d73f9b8U, 0x3dbb6a9d3cb741fbU, 0x3da696723d8186bfU,
  0x3cfe62393cc23838U, 0x3d09ca183d46a85aU, 0x3d196bbe3d786bf7U, 0xbd43842a3d50f2ddU,
  0xbcf5173ebd3005c0U, 0x3d931d253da8c801U, 0xbda5d823bd84e7c2U, 0xbcdc6a09bca0f04dU,
  0x3d222bf43bfedec4U, 0x3c59156ebba9c1bbU, 0xbd1829433db92cc4U, 0xbda124f6bd29377eU,
  0x3b905293bc843843U, 0xbd27fbf5bd081ea5U, 0xbd19aaf23c9b5c22U, 0x3d68582fbd08b5baU,
  0xbd0c42bd3dca2282U, 0x3dcb9d533d9aebd9U, 0xbd81e2683d90dbd9U, 0xbcad2aa13db28b63U,
  0x3d5b943a3ca0e5ccU, 0x3d8b83703d7506d3U, 0x3db044c73d1c87b7U, 0x3da15c2fbd8ebe77U,
  0x3cd795abbc4894ebU, 0x3dc42dd23c0d2498U, 0xbd4511d73d85b24fU, 0x3cb16d8bbda0416fU,
  0xbd9144b13dc6c735U, 0x3c8c96273d5a7eb7U, 0xba3c48573d36aeacU, 0x3d4194d5bd6b4842U,
  0xbcf3b2a43d0da07fU, 0xbcc3af57bd86304bU, 0xbdb0c9d83ce2975eU, 0x3cfc837cbd3caca0U,
  0x3d634ec23c160f6bU, 0x3d476fe33d8e53a7U, 0x3d64205d3cfd0caaU, 0xbca09e5e3d1a6c07U,
  0x3d19f22cbd4dcf80U, 0x3d4e6352bd9ef0ebU, 0xbd8a53573d94603dU, 0x3d2d9b7bbbcfdbf6U,
  0xbd7bd263bd9de759U, 0x3cca2702bbe03768U, 0x3acfb06a3d1fcaa5U, 0x3d17b216bdad29aaU,
  0xbd195e123d3a7000U, 0xbd59b09c3db2a8d7U, 0xbd9554babd4ec354U, 0x3d9048c9bca7be6cU,
  0x3ba073d4bdb5924fU, 0xbc9325f73cc808c2U, 0xbd200e3fbc20c47aU, 0xbd4e269d3d24e30dU,
  0xbce48425bd85f830U, 0x3d63b6c2bd1aea2fU, 0x3ce61cf2bd3fc0eeU, 0xbd9d5b0cbc8d015cU,
  0x3c011a363d9a8c8cU, 0x3d8df844bd94d5c5U, 0xbca4454cbdc5e1e5U, 0x3c59e71a3d5a1355U,
  0xbc9ca7ca3d81e1cdU, 0xbd32d3353cc0f2d0U, 0x3d2ee1ca3d70ad05U, 0xbd453a9fbcecd8b0U,
  0x3c38dab2bda59a1eU, 0x3c8fba69bcc8c625U, 0xbda290a7bd960ed9U, 0x3d8a94ec3daa23b8U,
  0xbd30b3b3bd47ae83U, 0x3d35e493bd307168U, 0xbd9b1fcfbdba8ce9U, 0xbd079c853d02f9dcU,
  0x3d71011abd19c5b0U, 0x3d9f08c0bd46d426U, 0x3c810b1a3c9160c0U, 0x3d2f71ea3d4b9ae2U,
  0x3cad22fe3da0e68aU, 0x3da944b5bd970428U, 0x3ce64716bc953497U, 0xbc2ea9ebbd8950f1U,
  0xbd96c8f6bd430672U, 0x3d7af0debdb24b41U, 0xbd8d44633da4a140U, 0x3d9422ac3d720187U,
  0xbc414eb7bdbd8a9bU, 0x3dac85c73d870989U, 0x3dac53123d8fccb3U, 0x3c295dbebd119bf9U,
  0xbc9b3452bd1f261cU, 0x3d1186b7bcfa3202U, 0x3da77d3d3cf04333U, 0x3d9e09afbb8faeceU,
  0x3c3e58e33b88bbd3U, 0xbd88b0a83c7c1b67U, 0x3d9915133b840facU, 0xbd26237fbdb23c3aU,
  0x3cc2593bbd1fcf22U, 0x3d971c2f3c9025c1U, 0xbccb8c12bdbf6053U, 0x3cbcada33d93fcf9U,
  0x3c8cce79bd17568cU, 0xbd54b0143d9f662dU, 0xbd8ef2a23cf55915U, 0xbd71ca8e3d345f35U,
  0xbd61d2143ae370a0U, 0x3d11b206bd85b55fU, 0x3d537a843d0b8fcaU, 0xbd79ebabbab8826dU,
  0xbdba736c3d2a43dcU, 0x3d3f22723da9c768U, 0xbd653a81bd0542c6U, 0x3da8d293bd12f5edU,
  0x3cd4b66b3d58a2edU, 0x3c5603b33d156892U, 0xbdbb6a853c05ae82U, 0xbc01f04bbdb65662U,
  0x3d83b42fbdb3e536U, 0xbd03e113bd05dbcdU, 0xbdb33f303be65345U, 0xbcee24fe3cbacfd6U,
  0x3da25f1e3c236564U, 0xbce48a8dbc709355U, 0xbd9ca7393c49d975U, 0xbb3dfbc03bc20e85U,
  0x3d831a47bce1e041U, 0x3da247fd3d0be702U, 0xbdc01f85bb3d795fU, 0x3d481b133d8af14dU,
  0xbd82c35d3d416e16U, 0xbcce9353bd98d11dU, 0xbc3a13943d17b0deU, 0xbbaef6343da0da4bU,
  0x3c14caa33d233d20U, 0x3c82015ebcb16160U, 0xbd8d5b65bd7ea7e0U, 0x3c9469bfbc86ef03U,
  0x3d2d8e973d441ad0U, 0xbd440096bd03c195U, 0xbda3032a3bfdd217U, 0x3d98fc5abcea289eU,
  0x3d61bc283dad99e0U, 0x3d845b4b3d537feaU, 0x3d6efeaa3d858e2aU, 0x3c393611bd5191d9U,
  0xbc861ef7bd3533b8U, 0x3ca790873d81a170U, 0xbd7e25a0bcfc9469U, 0x3dafe4fa3d587775U,
  0xbcb221a4bd9ffefcU, 0x3c54b5003cdc2189U, 0xbd8222d33d532b8aU, 0x3d5f40debd3c5b7fU,
  0x3da899fabca111c8U, 0xbdb36b22bd646be0U, 0x3d981e51bdb0e817U, 0x3d77c1f1bd927881U,
  0xbadcd8553c9fe798U, 0x3d557b94bd996fdaU, 0x3d82df7abdac61dbU, 0x3d98827b3d478c9aU,
  0x3d48c3c9bd579d6cU, 0x3d98c04e3dac1cdeU, 0xbcfe41603da8e4eaU, 0x3d67e69f3c842371U,
  0x3db1fd0fbd9e4c93U, 0xbc221e04b9655161U, 0xbd91a4373d25366dU, 0xbb2da016bce40d47U,
  0x3d8836b53dac41a0U, 0x3ceca42cbbca4384U, 0x3da57a653c1e8908U, 0xbdba900cbc3dca9cU,
  0xbd9c08013c8f5727U, 0xbd134bf5bce8c7a8U, 0xbbc3a8033ceb202fU, 0xbd3f02723d3473daU,
  0xbd696f7fbdb9a2bbU, 0xbdae9641bced71c4U, 0x3d2200873b8a23b1U, 0xbd2126d7bb48c853U,
  0x3d8f32e53ce3de31U, 0xbd16e75c3d55b988U, 0xbd5d9bea3cffbd8cU, 0x3c24ac3abb10c4d2U,
  0xbd0755413d4ca50dU, 0x3db6afb1bd7f49ecU, 0x3cc4185a3d309e06U, 0x3bab4c05bc3dc421U,
  0xbc25bcb9bd77ad8cU, 0xbc862023bda74d40U, 0xbd6b261f3d3b433eU, 0xbcb91e6e3da35537U,
  0x3d12e45f3cd052faU, 0xbda8c54cbd1d566dU, 0xbd9d825cbdb5a627U, 0x3c43e3c8bc87c261U,
  0xbc8b94a1bd420009U, 0x3d758a703d9eb684U, 0x3d91871abd7e2ee8U, 0xbd806491bcf12e45U,
  0x39df7ab3bd1af8e4U, 0xbd19ac5abcd6f5b5U, 0x3ca15ac13ad7e253U, 0xbd3f35543c8df1c7U,
  0x3ce226753d163f39U, 0x3d79e4943c3ea507U, 0x3cbafb3ebd036edbU, 0xbd2ba3383baddc67U,
  0x3db7b2fa3c9da278U, 0x3c2fadf23d8950cbU, 0x3d763bc43d0410deU, 0x3d8bb0bdbd108316U,
  0x3d7895af3db93566U, 0xbc93dce0bcd2f192U, 0xbcb7df5bbd9657d4U, 0x3d694d10bcdfa027U,
  0xbd334d4a3c0db401U, 0xbdb2e0cabdb4733dU, 0x3d0ee81ebc700378U, 0xbd98425fbd583368U,
  0x3d5ea3ffbbf5b595U, 0xbac57f293d206796U, 0xbc237ae33d027de0U, 0xbc4286d5bcca49c1U,
  0xbc9d7476bd9c3e15U, 0xbc4634ecbda29ee5U, 0xbd25ada0bd24ebcbU, 0x3c4dd9f43db27d1fU,
  0xbd93f2d2bd53a836U, 0x3cf6173a3d8f1787U, 0x3db14576bd593692U, 0xbda4e83cbb17f604U,
  0x3d942aaebb3cd641U, 0xbd8ea0c63c8bd70dU, 0xbd9df9ecbb9b0e48U, 0x3c65dc9f3d90e0acU,
  0xbd994e2c3d02b4beU, 0xbd0a06b83d05a33bU, 0x3d9e87693d313f83U, 0xbd34fa163d680831U,
  0xbd8f1215bd35d515U, 0xbd704903bcd89480U, 0x3d12201b3d5ab090U, 0xbd099e1f3d4a4f8cU,
  0x3c07c4463dabe701U, 0xbd96a15b3c29d1b8U, 0x3d72b2453dbd0116U, 0xbcb4fd8d3ca35108U,
  0xbb412602bda83eb6U, 0x3c900e80bcd1f232U, 0xbcedcbedbc9c6a4aU, 0xbbdf5cb43cf8b728U,
  0xbaf7c0a93d605678U, 0x3d5e6ef6bd58ed5aU, 0xbd8c35803c8f6754U, 0x3d9638c13c50fcd5U,
  0xbd63c1a83d46addcU, 0xbd9354a33da497dcU, 0xbb8ac9253d19d4a6U, 0xbcc840d3bdc3f046U,
  0xbd1555983d5f395eU, 0xbd677f59bd68b8efU, 0xbd125520bc7ff5bdU, 0x3d12cc1ebbbee243U,
  0x3d79f780bcafe667U, 0x3a4eeac03dacdc9dU, 0x3cd623c93db001f2U, 0xbd1c29203dbce931U,
  0x3cdb5a783d347e5fU, 0xbd79f353bb1c95b3U, 0xbbac015f3db0e87eU, 0xbc4230583ce5d5d8U,
  0x3c952c7abd801ce0U, 0x3d46c9523d88f5dcU, 0xbda76d40bd1aac5aU, 0x3ce25125bb1f6ba0U,
  0x3c652a09bbc849cdU, 0xbcb25e183d9ba589U, 0xbdc33d0fbd11abf0U, 0xbd938706bda1bd73U,
  0x3da006e93d196bf7U, 0x3c2bcde7bd647202U, 0xbd2fb4443d2d70ddU, 0x3bb5f381bc80547eU,
  0x3cd94a893dd271ccU, 0x3da70af9bd342566U, 0x3d9c6be13d827014U, 0xbda6b8ea3d747f89U,
  0x3ccf84de3d9e56a8U, 0x3c8a3798bd70485dU, 0xbdb17a9d3d59b167U, 0xbb71e64dbcd9e0baU,
  0x3b167727bd809971U, 0x3b1832bb3cffdc1aU, 0xbdba6f303d96a5d2U, 0xbd83a4c5baca18c3U,
  0x3cd5588bbcdf07bfU, 0xbd71f1b2bccdfae6U, 0xbd30e75fbd9cbc48U, 0xbd89d52a3c3ff3c8U,
  0x3d8b6fc2bb10cfa3U, 0xbd171427bd8f7c1cU, 0x3d25252dbbbe845eU, 0x3d978404bb843a0bU,
  0xbd19687abd2bc454U, 0x3d52e9c8bd97ca00U, 0xbd69dba9bd26dc88U, 0xbd99623e3d248ec4U,
  0x3dac8ab4bd283fceU, 0x3daf85f5bd80891cU, 0x3db99bdf3d91e0e1U, 0xbd3d5851bd75bcb1U,
  0x3c956664bd82ac88U, 0x3d66f8dd3ce5e8bcU, 0xbd4ef94f3d8f84c8U, 0xbbd7df87bd8da180U,
  0xbdce08e83c95e050U, 0x3cf5ee6d3d0e9bd6U, 0xbcb47cde3ca1b8d9U, 0x3c882101bda8cf27U,
  0xbd0b17dcbdc3d4f8U, 0xbde287713bd9f957U, 0xbd0e0e54bd3a3c9eU, 0xbd169396bd85a2dcU,
  0xbda88d383d503e73U, 0xbd56ee80bce860e8U, 0x3d2aeae7bda7cf7bU, 0xbc0c69c7bd0b82efU,
  0xbd7abc8d3d83c5ccU, 0x3d63bd353d9e7f99U, 0x3da7a5d8bd57b20fU, 0xbcad41b3bcc10449U,
  0x3d2199cc3ceb8b32U, 0xbd8d26613d8e5ffdU, 0x3d1faadf3db005e3U, 0xbd50e76b3d9dc7dcU,
  0xbcf0a03d3d9e796eU, 0x3cd0c672bd16264aU, 0x3d0412dc3da997e8U, 0x3c53ccff3d803e36U,
  0x3c7e0db63d3da8fdU, 0x3c8d99c0bcc0191fU, 0x3d53094cbc472bfbU, 0x3c79976db9c65fa1U,
  0xbdb424643bb16762U, 0xbcb424823d7723f0U, 0x3d30b6b0bdb71aa2U, 0x3d9edaca3d8fb3c4U,
  0x3d13f937bdb4325cU, 0xbcd31417bd7c36a9U, 0x3c43e73b3cfd87dcU, 0xbd3dbf743cce4440U,
  0xbacd150d3c18717aU, 0xbd680031bcc6387bU, 0x3da551b93d652be1U, 0xbd6eac88bd217f63U,
  0xbb24ed373ce94018U, 0x39950059bd41d34fU, 0xbcb6cc8e3cbf6be2U, 0x3d9fb0593c51b451U,
  0xbcbe95b3bc14db38U, 0xbd75a7a8bc9fce39U, 0x3ba70ef4bd3ce578U, 0x3ca04194bd81dba3U,
  0x3d82c38dbd5d7582U, 0x3cac6387bcda14eeU, 0xbb3e4e953d3b5788U, 0x3d8cd6623d261667U,
  0xbc87ed9a3db78632U, 0x3bd24f383dd9ebf6U, 0xbd7319903d905357U, 0xbca91fbabd555eeaU,
  0xbcff95f13d348cd6U, 0x3d94f322bb685697U, 0xbceaed853da5694cU, 0xbd3bb08abd2d0335U,
  0x3d526eb83d97f237U, 0xbca4a2d43d3c35b5U, 0x3d4cf1e83cbb7b20U, 0xbc806fee3d664becU,
  0xbb3fc2a2bc96c366U, 0x3daa828d3d5e8392U, 0xbb7242103c6079d0U, 0x3d3b34463d10520bU,
  0x3d37d8fa3aaff229U, 0x3d8aa451bc8e75dcU, 0xbcd557833c45a133U, 0xbd7c20d9bc6be7d1U,
  0xbdc206403d7c7479U, 0x3d2a5b873d89e2edU, 0xbca4b950bb923a73U, 0x3d00da993dae4a8fU,
  0x3d169827bd02ae9aU, 0x3c851f20bd2f87eeU, 0x3d0a0082bd99f209U, 0x3d308cec3d86ae2fU,
  0x3c8e5a8f3d9be94bU, 0x3d4ea7423d7534f7U, 0x3d2d000c3da3ae9fU, 0x3c681f3e3d31a94bU,
  0x3dc0d4de3cb6febcU, 0xbd827762bd583518U, 0x3d933dc23d4d20b7U, 0x3d87ab39bd8a9010U,
  0xbdb62605bda5ad52U, 0xbd2c69873d65ec0aU, 0xbda3daedbda8ee64U, 0xbbdfb2babd6ea5dcU,
  0xbd3b756cbd946aa2U, 0x3d7132f43db252e8U, 0x3d9a215a3d8023fdU, 0xbd3b5a393d8f334bU,
  0xbd17a7563d2ee62aU, 0x3cd95f583d5ae4e8U, 0xbdb015003d3b21f4U, 0x3cc3c28b3d0c796cU,
  0x3da901b1bd1987c0U, 0x3cc885123cee2dc8U, 0x3d47212a3bd69ef9U, 0x3d15d2743c456575U,
  0xbcd2f04fbd815a47U, 0x3c8714fbbd850c6fU, 0xbd69d0f9bcd459c0U, 0xbd5791e4bda2a619U,
  0xbd0d16d2bba55508U, 0x3a92c2673c31975dU, 0x3d3cb720bd5be8e6U, 0xbc6acf30bd5f51e1U,
  0xbd9cc0d63bc9ef69U, 0xbd9a523bbd90071aU, 0xbc5e3b28bdba2998U, 0x3c9937f33c35285cU,
  0xbda610db3acc1074U, 0x3daba1993d33b685U, 0xbba912073c0bc1e0U, 0xbcad7eaabc8786c7U,
  0x3d9aea3a3d055463U, 0x3c2198d1bd8c8df6U, 0xbd9d104dbd3dd62dU, 0xbcb21fc8bcb0afbeU,
  0xbd0d6bd9bc96deb9U, 0x3d2936683da517f1U, 0xbccd0a1fbc342f6eU, 0x3c99be443dad127fU,
  0x3d88a6343cc68b87U, 0xbdb85e783d59b8f2U, 0x3d983a73bda2a3a3U, 0xbcbddb323d23982dU,
  0xbd8911e33bcc4bfcU, 0xbd24645cbd082399U, 0xbc3b51d3bd6515c3U, 0x3d8d07f43d3fc8f5U,
  0xbccc4e8d3cbd3836U, 0x3dac4e36bd32041cU, 0xbd7930d83d0c15f1U, 0xbcd14995bd0defadU,
  0x3d12a44e3d67b4b8U, 0xbcd359aebd3eb63fU, 0x3cba11d0bd4137d1U, 0x3cecdb62bd2ea5e0U,
  0x3d23568f3d33898dU, 0xbda4b3e1bd9c8b93U, 0x3d8682513d951802U, 0xbd984e7fbd50f85dU,
  0xbb9da4c33d7bb254U, 0xbd54df803d1b4154U, 0x3d51127fbda2875eU, 0x3d0389b73cea0f1bU,
  0xbb99d4da3dbb7880U, 0xbcb95e41bd28262bU, 0x3da427e03d9f5b6dU, 0xbda6e0fd3d8276e5U,
  0xbd8dfc34bd437bbeU, 0xbb7225a9bdb7c1d2U, 0x3d5bf7ae3b30e440U, 0xbd9a5093bd0960d8U,
  0xbda6a7e1bd92929aU, 0xbd84c27abd91c453U, 0x3d7920b93d975bbdU, 0x3d185ac5bd8e288eU,
  0xbd338b2dbd2ec21bU, 0xbdc4b13e3d936accU, 0x3d979557bdc27abbU, 0x3d8ce473bd924610U,
  0xbd958dbebb60b548U, 0xbda4692dbd179240U, 0x3db40461bdad842aU, 0xbc092b353d89b7f7U,
  0xbdb83ab03db191faU, 0xbcdb9f2b3d5e6427U, 0x3d11b825bd87543cU, 0xbd3f22393bb9b32fU,
  0x3d2c6c70bdb49245U, 0x3d9921433ce6ccd7U, 0xbcd496cc3cf0b1a8U, 0x3d9fa2473d63add4U,
  0x3da0a172bc1f4e9fU, 0x3d9b5d993c91312dU, 0x3d98c38fbdb6c0f1U, 0x3c9a8f4bbd17f370U,
  0xbd53429bbd4caa4fU, 0x3d261588bbf5391fU, 0xbc0c7e16bd39a9e1U, 0xbc4585b53d82bcd2U,
  0x3d864b3f3b2f8fefU, 0xbcdaf9f83bdaf3faU, 0xbc8ea3d2bd925970U, 0xbcd55b9a3d5d5087U,
  0x3d0f9a333daf8b72U, 0xbd3b0d1ebda5c6d7U, 0x3c7e8ffebd2aa198U, 0x3d73ade7bd0d3115U,
  0xbd797f75bd0e2ee5U, 0xbc5e97cebd603b0dU, 0xbd807f51bd4fa326U, 0x3d906e173da680c0U,
  0x3caf95733d6383a7U, 0x3d7f8665bd9e03ebU, 0xbd8358e8bda64907U, 0xbd2c17a7bd99d375U,
  0xbd64f93d3d16f32aU, 0xbd9c75083b9b5d3dU, 0x3d201f743d943be3U, 0x3d208305bd9450dbU,
  0xbd6b4fbc3b8b99b7U, 0xbdb08fbe3c59261fU, 0xbc93928f3d8e4501U, 0x3d8e6854bd4cfaf8U,
  0xbc3cf3c2bd2aed24U, 0x3cefefa1bc58877dU, 0xbb18157fbd5cfb63U, 0x3bc1ccc43d790f36U,
  0x3dbac8293c22a371U, 0xbdab171b3d1dfedcU, 0xbce1f8c5bd008a30U, 0x3d82e9763ba90b75U,
  0x3d6efd8ebcc9dd9dU, 0xbd91358e3ca542beU, 0x3da6a145bd65824cU, 0x3b91c880bd5f3fe5U,
  0x3db637463db2d231U, 0x3da90b83bdabe513U, 0xbd33d6813d71c2b2U, 0xbd5cbe13bd91521aU,
  0xbcac6653bd8aa243U, 0x3c5c730e3d5c164aU, 0xbc6a37ba3cca6d4bU, 0xbb2af047bd9798d0U,
  0xbd23f47bbd3ed6a0U, 0xbd85bbb9bcde116eU, 0xbd31a5bd3d865effU, 0xbd58d3283daca96cU,
  0xbc70268d3d2035b9U, 0x3d9680093dbd2eb0U, 0xbd94157bbc9622ecU, 0x3cb308c1b954fe1eU,
  0x3c4d5f063d357ae4U, 0xbd5232f93d2fedc7U, 0xbda4dc4bbd41d423U, 0xbd0c9540bd39c7a3U,
  0xbd4dcb37bda6f32dU, 0xbd9900bf3c0c0978U, 0x3d4e4b753dab775fU, 0x3bed1353bd56083dU,
  0x3cb3e9743d5125b6U, 0x3d9545a23d08d3c5U, 0x3d0105103dc79f2eU, 0x3d205e943d13e589U,
  0x3cef9f9b3d8ff3aeU, 0x3cd1cb7b3d552918U, 0xbd448d91bc52fa98U, 0x3caabac8bcd632f4U,
  0xbd5c30ce3bb9529eU, 0xbca5cdaabcd6bc1cU, 0x3d498b3f3d61fa35U, 0xbcc31eb23d677f1eU,
  0xbc37b248bd42aacaU, 0xbd80e7c6bd118f97U, 0x394b8310bbfe9e9dU, 0x3c48d24a3d1a2857U,
  0xbda7e747bc2811baU, 0xbb1fbbca3b054b9eU, 0x3da725a9bc6646bcU, 0xbd51b6cfbcabc3e7U,
  0xbd275ef43d86bef6U, 0xbd8c2641bd4fce4aU, 0xbd1c59733c232531U, 0x3d6236e7bd9179f6U,
  0x3cd5904d3d53641fU, 0xbb7c8199bd08f298U, 0x3d67fa013d949c48U, 0xbc822bde3d2e8badU,
  0xbd1c32753cfd107eU, 0x3d8fa61a3d3007dcU, 0x3cbc908e3d82695bU, 0x3d3a69753d92ec86U,
  0xbcbcdac8bd5ba942U, 0xbd6b46b13d7df4ecU, 0x3cd42adf3c6fe91eU, 0x3da40f00bd18a644U,
  0xbca3e324bd2ccd32U, 0x3d9da8be3c712c40U, 0xbcc99112bd9a5916U, 0xbcaa97fdbd4523e2U,
  0xbc2d46aabd08d054U, 0x3d57ffcfbd86855aU, 0xbd1ee7353bf285f6U, 0xbb4e8fe83d012887U,
  0xbdb595fabd90aad1U, 0xbbcfd5b6bc3e69edU, 0x3d83693dbbb4b3caU, 0x3d6c2b79bb04513fU,
  0x3d325dc3bb100eb0U, 0x3d11279dbc2eb342U, 0x3d8ded6c3d96a324U, 0x3d166a33bd889875U,
  0x3d043419bd1d9afeU, 0xbd92d8163d8508dbU, 0x3d0ce66bbd8a0493U, 0x3b1cccebbd244725U,
  0x3d31611339b39d8eU, 0x3d5543cd3dcb124bU, 0x3c9b413abbb58472U, 0x3ce75fc0bc8f2bc0U,
  0x3dc164ef3cb63c41U, 0xbd802f2e3c330c25U, 0xbcb39f433d858045U, 0xbd9530a2bbb34608U,
  0xbd590f3a3d006cccU, 0xbc78abd63c997eb5U, 0xbd80a9bd3d1c2ba4U, 0x3d3985afbd54e032U,
  0x3d7e54123d1949daU, 0xbd531512bc16a9deU, 0xbdafaa803dae7563U, 0x3d9365ae3ce12269U,
  0xbdb9789dbd803917U, 0xbd34216a3acbf123U, 0x3d824ab3bc17c3e6U, 0xbd3c932b3d5bbfafU,
  0xbd1004b7bd526048U, 0x3da5a686bd935458U, 0x3d1ec9acbd7ef343U, 0x3d90bdeabc6f212eU,
  0x3c1130fe3d8f6dadU, 0xbcddf070bd87cbc8U, 0xbd65d3c5bd2a09f3U, 0xbd50aa26bbb2c7faU,
  0x3d72412abd9ecf2fU, 0xbdb58162bd18ecdfU, 0xbcbabbfcbd8dca66U, 0xbb9b6d1fbd6fe97aU,
  0xbbf317ca3d8b7924U, 0x3d8f2edebc37c55aU, 0xbcd437a6bce47c9eU, 0xbda01eb2bdac0738U,
  0xbcf3a9413daadc4cU, 0x3d9731d73dae17c8U, 0x3d1e7cf1bd2f3769U, 0xbd5285f0bd5af668U,
  0xbd8af954bd41fbdcU, 0xbd6f8d52bd55ea66U, 0xbcb354533d29181bU, 0xbcf10977bc8e0587U,
  0xbb8d61fdbd2c2718U, 0x3c6c73433d2d9fe4U, 0x3d9240e5bd541d5aU, 0xbd4e9e493d7ab73dU,
  0xbd8325db3c5655e6U, 0x3d639c5abd833b09U, 0xbd262c993cbfeac3U, 0x3bcb82d63cc57331U,
  0xbc1e36493cdc5a4eU, 0xbd0e1734bd81db05U, 0x3d97a6e4bd4dfd8eU, 0xbd972d2ebd8b281bU,
  0xbdacb4f1bdb6ebd1U, 0xbc5c2c5c3da755c6U, 0x3da2919b3d92b966U, 0x3c965dd8bdb7fc56U,
  0xbd8630b73c9b161bU, 0xbdadb1b23d0aa9c5U, 0x3d8b77b4bcc989f3U, 0x3d657a68bd626d76U,
  0x3cda05bdbd6081afU, 0xbd987d52bdb023aaU, 0xbd9a9753bc11d5b3U, 0xbd25dcb5bc97f02aU,
  0x393ca8e63d8c4523U, 0x3da34989bc99a48bU, 0x3c8cc4febd9c6efbU, 0xbd9a3eb63da227e4U,
  0xbce57643bd7b0bebU, 0xbd71405fbc3ed672U, 0xbc8eb5b83da8fcfaU, 0x3cc49acb3d55a514U,
  0x3b1114ebbd9f3168U, 0x3d8f63fe3d8f9ed9U, 0xbd45e64abdace82aU, 0x3d80ed8a3d293a5bU,
  0xbd5bde073bd389bcU, 0x3c9169ce3d531308U, 0xbdaf02d2bd93123eU, 0xbdb7e9a43d018505U,
  0x3c95afc53c6badfeU, 0xbd8361b1bd2b00deU, 0xbc98b12d3d7070c4U, 0x3d2067b03d5c3d76U,
  0xbd480e60bd6f2465U, 0xbd3e00a73cfa345bU, 0x3c7899a4bcd9a354U, 0xbbefa3ecbdb080d6U,
  0xbd5ecdee3cf345d0U, 0x3b0bc430bcc9f096U, 0xbdbcc8b5bc970ccbU, 0x3d6d8a0abc6d3222U,
  0x3dab897dbd53238fU, 0xb9c8c67bbc7724d1U, 0x3d9ad55c3c8a6c7dU, 0x3d86c64abdbc75a9U,
  0xbc3a5206bd9cda6eU, 0xbc1edb92bd7b429eU, 0x3ccdb75fbda98723U, 0x3be2bdddbd8eb823U,
  0x3d804af7bdad8428U, 0x3d2459c3bd1a295cU, 0x3c06b0a03b9606b5U, 0x3d2fb9353d72f5feU,
  0xbd0062d3bd932aa6U, 0x3cb5207b3d31f44bU, 0xbd5b51a4bd336dd4U, 0x3d19f552bd27f032U,
  0xbd94486ebcd13c92U, 0xbd6d36f83b4bf891U, 0xbd87259dbd2630aeU, 0xbd9dcfd43ce733fdU,
  0x3d9b36bfbd15e49dU, 0x397b2f233ce8477dU, 0x3d9fad1e3db1d456U, 0x3c425ae23d841e61U,
  0x3d9f6ed03d9d79f9U, 0xbcc57557bce231a6U, 0x3d8bef3ebd2ae2f2U, 0x3d7f24fd3d62d193U,
  0x3da0a3d4bd90ca86U, 0xbda58150bd3605b6U, 0xbd33ba7bbd1f50edU, 0x3d3dfadf3d3b3235U,
  0xbda732fcbd2e3280U, 0xbd335c35bd0f2be2U, 0xbd3078debdb74d42U, 0x3da42ff13cd6bf3bU,
  0xbca920c8bda307ddU, 0x3c9fd057bc550ff5U, 0x3cafe1833cf36bdcU, 0x3c47754cbd9db376U,
  0x3d34da233d91f924U, 0x3c776c41bdd54915U, 0xbdb73dc83d4ae0eeU, 0xbd3417213d413d0dU,
  0xbcd9bf483ce4eab0U, 0xbc83d4d7bca954f9U, 0xbce1ff6c3c9bebeaU, 0xbc1e6e013d58e65eU,
  0x3cd80297b9c7c7b1U, 0x3d55289a3d56193dU, 0xbd7ef302bd1770e5U, 0xbd571e60bc6e8848U,
  0x3d79e7b1bd4dee9aU, 0xbc744ca53c5c8e59U, 0x3d25b1bf3d06f35dU, 0xbd29ec67bda8ac13U,
  0xbd38cc08bab5c45aU, 0xbc45b5a63da1ed2aU, 0x3db0e4b03c3650a4U, 0xbd0c96253c8fef11U,
  0x3daa66143d12e735U, 0xbd21df9d3db21e39U, 0xbd96f536bd162663U, 0xbbd1dd9dbd1f1ee6U,
  0xbcf01400bda77356U, 0x3c94a7c7bd7bd583U, 0x3cceca9f3d7d3d81U, 0x3bbfa439bcf8845aU,
  0xbdfa2db9bd31b1b3U, 0xbda26f7e3ca46ad8U, 0xbdc372cdbdc5e9faU, 0x3d2f6eaabdf5342fU,
  0xbd87c725bd5fb31cU, 0xbde6d097bdacd6feU, 0xbdb6f4573d4261b6U, 0xbdf443b7bd46592dU,
  0x3d07f5c4bd9000cdU, 0xbce083353d2ded75U, 0xbc9a3d203ce9b81fU, 0x3d9817013d0e1f3eU,
  0xbc8fddf23dab7e98U, 0x3d9a5f77bcc8052aU, 0x3d1c90173dd477f4U, 0x3c90417ebb9ffb50U,
  0x3dd5865cbc9d48c5U, 0x3dbca0353d681b84U, 0x3dc32743bd42c33fU, 0x3d33b6683d0f5cccU,
  0x3a7cbb9c3d4afc5fU, 0xbd8bf6a03cd2c766U, 0xba5a8facbc63c2f2U, 0xbdabf69a3d0ffed0U,
  0xbdd04b1cbdac9d2fU, 0xbd93de123d2c0b47U, 0x3d644b6bbd05ca90U, 0xbd15b7073d269279U,
  0xbdec13ac3d5be578U, 0xbc922d45bd37f00dU, 0x3d5348ddbd8adb1eU, 0xbcc4dbbabd7ab142U,
  0x3d13e9063be28436U, 0xbd0fdfab3d052fb1U, 0xbdede26fbdc9ed1cU, 0xbd6ac3d8bd3cc46eU,
  0xbcfd6977bd5e2ca6U, 0xbce97822bd3ebc9eU, 0x3a654ee5bc8397a3U, 0xbd9635e7bdc3d33bU,
  0x3dac14acbd1876a6U, 0x3d7ecb6bbdaeb8a8U, 0xbd59a42a3cc50a6dU, 0xbd0337d33d36d8c3U,
  0x3d56bb9e3db9a06fU, 0x3c62c846bd12a6a6U, 0xbb83a7bcbd8255d0U, 0x3d4b9034bd77ebccU,
  0xbd917ac53d57d94fU, 0xbc53516fbcfc5f11U, 0x3d6223af3d51e285U, 0x3cd0d998bd1d5297U,
  0x3d8f93babc728b69U, 0x3da8e3d2bd1fe8faU, 0x3bb943873d9f2ef2U, 0x3ddc43c9bd85bc28U,
  0x3c477379bd43c594U, 0x3dd6a5d13cb286b2U, 0x3daf0ecfbcf11737U, 0xbd782fbdbd271e76U,
  0x3d7960bcbd06d00fU, 0xbd5351de3d0e2234U, 0x3ccf49a0b9cf6d20U, 0xbd45aefabcc97cf2U,
  0x3d6244223d919fc5U, 0x3ce6fe42bcb0ebd7U, 0xbcc1209dbd90fe74U, 0xbd66d264bdbc013fU,
  0xbc8313af3d7182b9U, 0xbce50459bd96b97fU, 0xbdb0b920bdb7d014U, 0xbdce9aa43c9daa66U,
  0xbd7a58fabc15a001U, 0xbc8820b53c4b5d85U, 0xbd9ac0d1bcc2ee06U, 0xbcaee517bda79612U,
  0x3d1eba00bd46240bU, 0x3db17160bd850bd6U, 0x3d08e05b3d94cfaeU, 0x3d922a223db9cdd8U,
  0xbd2d752cbd7cd2dfU, 0xbc86fb173dba8314U, 0xbd84ec3abd519ff0U, 0x3d1d9b7a3d849407U,
  0x3d9b9da93ccbc5b4U, 0x3c5abab63d7b4be1U, 0x3de0f380bcf299a3U, 0x3de387e23d26733bU,
  0xbc3290003dea9c5dU, 0x3d1aec963dd50e06U, 0xbccb89913ddd8617U, 0xbd2ca0c03d7fc74aU,
  0x3d6a2b86bcf289fdU, 0xbc2798f53c856e7fU, 0x3c863a6dbd048ef4U, 0x3c2711343d86cf43U,
  0x3cf211393bb7be75U, 0x3b18d9e53c55bb41U, 0xbde23068bd9285bcU, 0xbc5e194f3c1f3f97U,
  0x38b6a5c9bd2ab61eU, 0xbd2f6bad3c715ba0U, 0x3d4928d7bda1b0ccU, 0xbde28c62bcf66efdU,
  0xbd50609abc025dceU, 0xbdd1feae3d5b100fU, 0x3d660619bda3f658U, 0x3d4e961abd5936aeU,
  0xbd2325a13cb7e6efU, 0x3d2084fb3da78c6fU, 0x3d421bd1bca79a9aU, 0xbd35131c3dda336eU,
  0x3da7dfba3dac1176U, 0x3e04a6e73dbb8114U, 0x3c2a14713df3b9ebU, 0x3e1e98033d871923U,
  0x3daf593e3cbba88bU, 0x3dc32f223e1fd3a7U, 0x3d7f44c83d4648beU, 0xbc3026273d2ede55U,
  0x3dfd9a313d1ef0e7U, 0x3c6f0f033df14eadU, 0x3da9dd103da8c3e0U, 0x3d5ffce93d83a8f6U,
  0x3b9e05213b975bf2U, 0xbd9f3beebd9694c1U, 0xba74b573bc6fa0aaU, 0xbdd03d443c85819dU,
  0xbcad259dbcea0ddeU, 0x3cf8fd97bc01b3aeU, 0xbdb9d0b23cf735c2U, 0xbd81f110bcd35dc1U,
  0xbdc5bd14bd45b4f8U, 0x3bc92e93bdbe547eU, 0xbd0268a03cdfca94U, 0xbce3e626bdcae09cU,
  0xbb93dcca3d726146U, 0x3c7912df3d88a481U, 0xbb6bc6363d98e96cU, 0x3d4473943cc246a8U,
  0x3daa88a6bb0c63eaU, 0xbc40e3963d2a7f59U, 0xbb2a4d2fbd5110b3U, 0x3cb783af3cd53583U,
  0x3d943916bd8cf924U, 0x3da9fa18bcda3d00U, 0xbd93d4eebdbec4a1U, 0x3c8eafb53bfe506eU,
  0x381a26cd3d920450U, 0x3d5d9b0bbd65a67bU, 0x3c4782dc3c9b036aU, 0x3c870bd83da7092bU,
  0x3d9340973c961ef3U, 0x3c2ef5293d3e7750U, 0xbda4fc03bd23cf5dU, 0xbd3149783add74bbU,
  0xbceac464bd3703c4U, 0xbcfae05fbd93fc0aU, 0xbcbb13093d8b3fbbU, 0xbbc79e663d4072bcU,
  0x3ca627df3da0fdcdU, 0xbb3cd8bbbd4ec5a9U, 0x3d4c915c3ce19f85U, 0xbda97ea6bc9a18a6U,
  0x3d233dfa3da8d95aU, 0xbcfe3bdf3c2fe990U, 0xbdbc3ccc3d28c751U, 0xbc12981a3cd2bc19U,
  0x3d4cf5cabd8c64f1U, 0x3d8bd7523d47cae2U, 0xbdb2dfa9bd02450dU, 0x3d9ad0f13bf0083aU,
  0x3db001cfbd7a5e3aU, 0xbc735515bdabc400U, 0xbcf27f5a3db38f88U, 0x3d6a58ea3cc568adU,
  0x3d2b56283d981ef6U, 0xbd1c8c973c8eb0bcU, 0x3dc55ab23d8365b5U, 0x3cf3c3423dbd4876U,
  0xbd6c40233cc7c989U, 0xbbb17d153d335c4bU, 0xbd9ba4e73b8bd092U, 0xbcd804fd3cab1f15U,
  0x3da648a73d9937aaU, 0x3ccb07363d2556d2U, 0x3d093caabd54b63fU, 0xbd4068bbbda79805U,
  0xbccfd7db3d265accU, 0x3d99bd153d7f7640U, 0x3d8ea36fbc637fddU, 0xbda10a86bcc364e0U,
  0xbdb2fc493d63462fU, 0xbd5bc907bc68cecdU, 0x3d89c5083ba5f236U, 0xbcfe77253c0fda1dU,
  0xbd81d2c6bca97a44U, 0x3d76632a3cf16d4fU, 0x3d8c4aecbd61252cU, 0x3c43464e3d47459bU,
  0x3d44bea1bd02bd44U, 0xbda5abcb3d2d2750U, 0xbcd961543bd25704U, 0x3d0856e7bd7f8860U,
  0xbcbcdc64bccc08a4U, 0x3d10a047bdabe293U, 0x3d764e383ba291c1U, 0x3d913b6ebc91654dU,
  0x3cb998b63d942825U, 0xbd2deb90bd89a298U, 0xbc5d43893a8aed38U, 0xbcfc9fd43d886e8aU,
  0x3c5a7951bdabb05dU, 0x3c25c3a33d65b69eU, 0xbdb671dbbcc7fa98U, 0xbccfaebebda9eebfU,
  0x3d6ddc063d43d2a0U, 0x3db87124bcaa9fffU, 0xbda025fcbd8d4012U, 0x3c864890bd7bd52fU,
  0xbdac9f1ebce211ecU, 0x3d9680af3d631da4U, 0xbdd1c4fe3cd06e64U, 0x3cd05cec3ca606a8U,
  0xbd8cff0b3d3623a2U, 0x3d7192703cc97e73U, 0x3cbbf6783c238dd9U, 0xbdcc2ad53c58553aU,
  0xbdaf6055bd842ce3U, 0x3bb40cd1bd05c2a0U, 0x3c929bd9bde43c79U, 0xbd972dbebc53488dU,
  0x3cd2ababbdba2417U, 0xbcab1fd7bcb3d2cbU, 0x3bbba83a3d97fefcU, 0x3c19e150bdb4c585U,
  0xbc08223cbd0da1b9U, 0x3d2435943d2c4e9cU, 0xbd740243bca429c0U, 0xbd368d17bc663791U,
  0x3ceac22f3d0c73d2U, 0xbd23314eba9e8eedU, 0x3b78c4b93d963283U, 0x3ce7fac93c1fa412U,
  0xbdb01164bc87bde5U, 0xbd56f70bbd949c3cU, 0x3c9ea672bd1ea695U, 0xbc85b17d3dae76deU,
  0x3cf6f1883b228d80U, 0xbd90ba163b308ffbU, 0xbd91cabebdc423aeU, 0x3c6f180abd556953U,
  0xbc3f35693d3a70bdU, 0x3dacf875bc50febfU, 0x3a387a1dbcd42f29U, 0x39cc0c32bcf2414eU,
  0xba918e40bd90d301U, 0xbcc7efebbd58f54cU, 0x3c183a29bda7db37U, 0xbd5b1a9fbd72868bU,
  0xbd9a49d5bcc77d7cU, 0xbd9290f4bd8bf1ecU, 0x3d979e67b8ad66b6U, 0xbdaa20793da498baU,
  0x3d92d5b5bd43ce1bU, 0x3cd2cddcbdb0ff4bU, 0xbd53ee563c344f1bU, 0xbd801c1bbdb2289fU,
  0xbc9fe76dbd47b461U, 0x3cd1ef16bc8efa26U, 0x3d6ccf203c0e7fb7U, 0x3cfe9affbd6f9c44U,
  0x3c28da4a3d9e447dU, 0xbd891e13bdbb92b9U, 0xbd4092963d6639f3U, 0xbd4f4e143da8598dU,
  0xbd839165bc9b78cdU, 0xbc77bc6fbcb85dbeU, 0xbc504e643d866e67U, 0x3d1b1fbdbcd236e8U,
  0x3d0d43f6bd8379c0U, 0xbdb64b1ebd5d82d5U, 0x3c8629f8bd69a177U, 0x3cfd968f3daa8873U,
  0x3d791ed7bdae099aU, 0x3bbb68573d572dffU, 0x3d914c983ca43b5eU, 0x3da0d1b7bd8bc088U,
  0x3d7b688fbcd3825fU, 0x3d8b275d3ce90cd5U, 0x3d99877a3d6d1eefU, 0x3c2f30bbbd2e7f8aU,
  0xbda86b8f3d357134U, 0x3d0ad704bd0036bbU, 0xbc780c393d8b8a30U, 0x3c9378fbbd2e36e3U,
  0xbbd205f8bd2e9e31U, 0x3c4b19eb3d2653ebU, 0xbd1c990f3c452ecbU, 0xbca4900b3d817128U,
  0x3dac95493dad3affU, 0xbdb12ccdbda3765bU, 0xbdb265683ca476dfU, 0x3aadef41bc0321c2U,
  0xbd0e17223d97a16dU, 0xbd6125303cb9dd70U, 0x3d9e6730bbadf989U, 0x3c32da49bca98b9eU,
  0x3daac473bda904ccU, 0x3cd1eda8bd7b422dU, 0x3d97da39bc8db68dU, 0xbccc78c23ca5c5b5U,
  0xbcc2ac07bda499b8U, 0x3da61d433c5f73d6U, 0x3cc89414bd993795U, 0x3caf33f63ca5add3U,
  0x3da69124bd91e903U, 0x3d9b7be1bd096524U, 0xbdba89843d7f1b72U, 0xbd1d2de33c63f912U,
  0xbd466cc5b9718c95U, 0xbd7827b03d55493cU, 0xbcad237d3d742819U, 0xbdb640a33d99d169U,
  0x3cf9ed3abd8e3939U, 0x3d38979dbdb61f5fU, 0x3c895b64bd92a332U, 0x3d10b4a1bbb656ebU,
  0xbd0e69a6bdac4dd3U, 0x3c1e3e1d3d3d86cdU, 0xbd76a4383d0134c2U, 0xbcbacd653c3a906cU,
  0xbd5948183d8de747U, 0xbda26f19bc85be0cU, 0xbdaf66913d3ce875U, 0x3d16c0c3bd9c4e7bU,
  0xbd05b7e33d2be135U, 0xbdb254e43c933954U, 0x3d275ce03c8c867eU, 0xbd24cdfabd92409eU,
  0xbcb300233d991e53U, 0x3cef7164bd9359b8U, 0xbcf68ff73d60e25eU, 0x3d0cb324bcba155aU,
  0xbc974e0b3b82d8f5U, 0x3d49db68bda66b0aU, 0xbcbf8388bd77bcfeU, 0xbd2cd9e33d465002U,
  0x3d0f23c03d0b6ec8U, 0xbd9337a13c4bb27eU, 0x3d792db63d2f3c83U, 0x3d42f6f03d3bb96bU,
  0x3dc0571a3d1348b7U, 0xbd860208bd7c6a61U, 0x3d9da4423d002a3dU, 0x3cd370093da10695U,
  0x3d30298bbc8d01aaU, 0xbb064b993d96bbc1U, 0xbcf8f80bbcb46997U, 0xbd175b01bd1ac20eU,
  0x3ce5633d3daf8682U, 0xbdae23fb3cb2e082U, 0x3d8cf16c3db6d064U, 0xbd76b852bd852eb9U,
  0xbd880d46bd92ac9dU, 0x3cc9b91ebd72ef06U, 0x3c82cf773d7fdd5aU, 0xbd6dbd183db2cf53U,
  0x3daaa183bc8a3f60U, 0x3c939fe23d4e6378U, 0x3da512d1bc830a63U, 0xbd5ad7e73c27c242U,
  0x3d9912b3bd1c6537U, 0x3db1dcd63d05e357U, 0xbd55ac1e3bd8c5ffU, 0x3b844254bdb1b7d1U,
  0xbc7ecb283cf280e2U, 0x3c86b1ec3d9f3a9aU, 0x3da18abfbd015be4U, 0xbd9c8c38ba6a0d68U,
  0xbd8333013d72fe4eU, 0x3d8003f6bcd69e23U, 0xbd206324bda9cdefU, 0xbd86e97bbd4b6ea6U,
  0xbd421056bd1c0ad0U, 0x3d9825dabc9e4f54U, 0xbd477be63d26e820U, 0xbbcf4e0abd973b7eU,
  0x3d0df2723d195353U, 0xbd1230e23d112a71U, 0xbd9f5b83bd3c4f51U, 0xbd30b7683d9b1058U,
  0xbd32155cbd658482U, 0xba816ad3bce95fb5U, 0x3d93f9023ab5db58U, 0xbc966e263cdf26b3U,
  0xbcd4c4ccbd3cdbf9U, 0xbd8757e5bd77b70fU, 0xbce663b0bd30370cU, 0xbc8356713d49ad28U,
  0x3daf79c93ce9509dU, 0xbd84054ebda7a91bU, 0x3dab6b723c5a812bU, 0x3d3b4e3c3d502193U,
  0x3dbd59c0bc477995U, 0x3bcb9903bd14fc6cU, 0x3d0e92edbd8c939cU, 0xbcac19853cc05081U,
  0xbc30df123d014cb5U, 0xbd3546033dbb142dU, 0x3cc8a25c3b0256d1U, 0x3d8d140f3db51b4fU,
  0x3bfa2da43c48b6b9U, 0x3cd22e7f3d8cacc9U, 0xbd93ae2a3dad800fU, 0xbd9574dcbd6c2ab2U,
  0x3d023d46bd3197a2U, 0x3c8b350d3d952ca5U, 0xbda553413d95d481U, 0xbc06d8b43d1316fcU,
  0xbbfc29f53d40e086U, 0x3d949b7e3d040e06U, 0x3cfd185c3d8ca1e8U, 0x3d9275803dbd381cU,
  0xbcb68505bd1d8e0dU, 0xbc8aa81e3d1ea802U, 0xbcb5c0dbbda17666U, 0xba8b66f13d04cfaaU,
  0xbd9a8eab3d2239e5U, 0x3c7ae697bd27b29fU, 0xbd9d582d3dafc619U, 0xbd5f5f223d2e7010U,
  0xbd85d5e23d549f03U, 0x3c8c75dbbd971e08U, 0xbc83024dbcac47a9U, 0x3b4861adbd93997bU,
  0xbd753ffc3d60a519U, 0x3c3af8c03bc30633U, 0x3dbc3626bd7b23b9U, 0x3dbb6074bd5575a7U,
  0x3d853ecdbbeeaa33U, 0x3d444b67bd2e5090U, 0xbd8bdfbf3d6c7a89U, 0xbd1335e8bdaef3f0U,
  0x3b0c1e76bc9e25dfU, 0x3ccba8e43d60afc4U, 0x3c8451f83daaccc6U, 0xbc8f42c9bd0c2bdaU,
  0xbd806936bd9040f0U, 0x3c8ece86bdb1d4fbU, 0xbc19aab43d974e81U, 0x3d325662bd4ba638U,
  0xbd2992a93d4d663fU, 0xbd8cf766bdbcc5fbU, 0x3c191e193d6f81b0U, 0x3cef2d2fbcc7a174U,
  0x3d46a53a3d967416U, 0xbdbfbc59bd00e2fdU, 0xbaeed9b9bda2b7f5U, 0xbcff4020bdba165bU,
  0x3d8c818d3c083e16U, 0x3d700645bb0254b0U, 0x3d2412c53d91d2ceU, 0xbda0188bbd30ddc4U,
  0x3ca818ac3d279036U, 0x3d583ce1bdbd2fc2U, 0xbbaa948f3d206341U, 0xb7fbeb41bd26773eU,
  0x3da9a2ea3d5100e4U, 0x3c9559d5bd99e0b5U, 0xbda6fb4f3d854d62U, 0xbca5d12bbd421eaeU,
  0x3d5b3b483cccf403U, 0xbb93f69ebd806712U, 0x3c6fb4a7bc310374U, 0x3d93e025bd42dddeU,
  0x3c88c6313cea7ba9U, 0x3d9b0a3d3d6ecde7U, 0xbd863f8b3d81b1f3U, 0x3d96d0f63c8df82dU,
  0xbda41986bca4ba83U, 0x3d51ea133d16fcfbU, 0x3d971b503c2037cfU, 0xbda454f3bc6256beU,
  0x3bab051abca70766U, 0x3c8b635d3d785743U, 0x3d5304c53b8cc9a3U, 0x3d7d8f4abd283724U,
  0x3d9c27a03d2dbdb2U, 0xbca470a5bd5fbf6aU, 0xbdbe5a69bda5712cU, 0xbc6f1064bd083249U,
  0x3da52b6f3d0cd34bU, 0x3c707951bd876d95U, 0xbcd49d523d971f7bU, 0xbd9e7939bd8a84dfU,
  0x3d82ee363cac9d92U, 0x3d808bf4bd850222U, 0x3da6a08d3c8da37eU, 0xbd809f5c3d60d7a9U,
  0x3d8f477c3d9d3658U, 0xbd896d93bda32496U, 0xbd02daf5bd88a538U, 0xbc08dcbebc55e8ddU,
  0x3d9cf3cbbcb47922U, 0xbd266d7dbd125d93U, 0x3da526243d94d97dU, 0xbd1677a6bd938da4U,
  0x3d62adcdbd8a0d51U, 0x3c7beb3abcd4981aU, 0xbd3d056c3d84930dU, 0xbc6f05acbdc6aaa4U,
  0xbd996beb3cedaec3U, 0xbcb348e03cad44c4U, 0xbd96fdd9bda17aabU, 0xbad5c181bd4feed8U,
  0x3d8febe7bb0cce44U, 0xbda23078bda9e8dcU, 0xbc32689f3d6defd9U, 0x3daa5112bd43fd21U,
  0xbc9ca70e3b02fbdaU, 0x3bc84828bcb9c889U, 0x3c981262bd7215dcU, 0xbd7ee64e3bd38a54U,
  0xbdbaead1bd0f26c7U, 0xbd858ff93ce418e5U, 0x3d28c029bbf21a8aU, 0x3d9bdf35bcafbf32U,
  0xbc8ce862bd6e4a76U, 0x3afb847fbd822fb5U, 0xbdb9c354bda03e99U, 0x3c83fe213d6b68c0U,
  0xbbdfd72ebc8123cfU, 0x3d641ff83d3b0a50U, 0x3c981539bce8cfe4U, 0x3ca9e4233d4df4e0U,
  0x3d81e717bca02c63U, 0xbd27d6943d8fc5b1U, 0xbd419361bcb1c240U, 0xbd6cc3ce3bdc79c6U,
  0xbd4cbad43d86d086U, 0x3c86d5c0bda1eee8U, 0xbd537d1fbd824913U, 0xbd3e33afbd03fc47U,
  0x3cf7926ebaa478adU, 0xbd3bba5a3d8964adU, 0x3d03f661bd38ff4aU, 0x3d51ca6fbda4a921U,
  0xbcd812383d9c7370U, 0x3c0054583d0d5fc7U, 0xbd245266bd9bfd67U, 0xbd27fc683d9a7179U,
  0x3ca8df93bb3f0ac7U, 0xbdbad7c2bcfcefc2U, 0xbbf73b85bce056c5U, 0xbd65a4b63d0cf57fU,
  0xbb8c8fc2bdbd0939U, 0x3d987aef3d16eba0U, 0xbc9a9415bc3c34d2U, 0x3da0a27fbd56552dU,
  0x3d501105bd928830U, 0x3d728035bd8c1cc9U, 0xbc5c41243d24d19fU, 0x3d1bafbe3d980360U,
  0x3d4880ecbc5af427U, 0xbdbb2ec73b56b955U, 0xbcc2922abd5f993cU, 0x3d1f9ab73c926cc5U,
  0xbdb59c78bccd706fU, 0xbc8505eabd319573U, 0x3d9a6f523d7dd184U, 0x3c4a40af3b3baf51U,
  0x3d8ab8723d9241adU, 0xbc00facfbcf5df60U, 0x3d7af881bdafeea7U, 0xbd8f88e7bd58a6e0U,
  0xbd67a3743b744051U, 0xbdab8e82bd16e602U, 0xbd9d3b3ebdb07338U, 0x3c6af8e1bc41d902U,
  0x3d8c0566bd974860U, 0x3d9f023f3a5e1736U, 0xbbab29b7bd83d92bU, 0x3c2be7f5bda75421U,
  0x3d6a3f6e3dba0818U, 0x3d79781e3d9aeb39U, 0xbce6830abccdd01dU, 0xbdb41baf3b4b829cU,
  0xbd8fba953d7b2364U, 0xbd1cbd53bd0a3823U, 0xbb24ee08bdc4f619U, 0x3c732fda3c2c8c0fU,
  0x3c24a9e2bd4127cdU, 0xbd57b61abd55c3b7U, 0x3d07418b3d9a28c1U, 0xbc8af3983d5159a7U,
  0xbb8831973d2f8a1eU, 0x3d302a5b3b728909U, 0xbca42cce3c8df464U, 0xbcb20bac3db5a08cU,
  0xbda3a356bd8bf838U, 0x3d00a7ef3d50714aU, 0x3da16568bd56e48aU, 0xbc671d6d3d8c686eU,
  0xbcf4187bbd247c47U, 0x3d2232d9bd8aec49U, 0x3cea5180bb692f4fU, 0x3cd02a9ebd3de22eU,
  0x3d3ab093bcdd2cd2U, 0x3ce6c976bd3e24bfU, 0x3cab99d3bdbc8f72U, 0x3d875b83bd5cc309U,
  0x3d6169d6bcfa260fU, 0x3d8e41063d9e889dU, 0x3d5218e63d4c9885U, 0x3cf0301a3d417ad1U,
  0x3d9ca30ebd4be975U, 0xbd1077353cf5a469U, 0x3d94aef73d5ec690U, 0x3d913af63d53281dU,
  0xbd6c24073d63073bU, 0x3d0b611f3d853958U, 0x3d767cc63dae9273U, 0x3a3a2641bd69de5cU,
  0xbd7197babdbd1696U, 0xbd8015f5bcd2ae59U, 0x3b01c6b33dadc4e6U, 0xbd64fb633cbe1a95U,
  0xbda4184d3d627b92U, 0xbd9e85d1bd74efa5U, 0x3da8d1cc3daad2c2U, 0xbc0fe02bbd8073e3U,
  0xbd4e8e5c3c4606c7U, 0xbcb5513c3c9e90e6U, 0x3d0c136f3cd4248dU, 0x3d97a4b6bdbff245U,
  0xbd0e58603d9e1448U, 0x3d4003713cc75dadU, 0xbd3834113d0374f5U, 0x3d5d3f77ba43d955U,
  0xbd43e315bd4d950fU, 0x3c871ea4bd1238b2U, 0x3bea8022bc28218dU, 0xbc8cbd59bd5d3442U,
  0x3d9c1c953d6538a0U, 0xbc9ff7e3bcf7d72dU, 0x3d35a888bcbdba6dU, 0xbcd73b273d28fa9eU,
  0xbd528d63bd5b3cf5U, 0xbc026252bd6c1a33U, 0x3cb3a9fbbc650123U, 0x3d70e700bb3db880U,
  0xbca04e903d8a91faU, 0x3dbff1e0bd85c586U, 0x3d030d4c3d932a2fU, 0x3c2216963d49b841U,
  0x3d7c04bbbd641c3aU, 0x3d9c26303da81a74U, 0xbb9c0ee13cca42e8U, 0xbd2147813d803c99U,
  0x3dae6828bd5b7769U, 0xbcac5fecbd774600U, 0x3daefe123c9a4854U, 0x3daa3dcf3d2a797eU,
  0xbd94d2e9bd9f8d93U, 0xbd5bba783dbaf7a0U, 0xbd5ffefabd19805dU, 0x3d6a6baf3d7803e1U,
  0x3cf0db013d4fcd36U, 0xbd6630a63c42cd27U, 0xbd8086ee3d8eedcdU, 0xbcc16c0dbb98fefbU,
  0x3daf21abbd9dbd90U, 0x3d180ef7bd13dc8aU, 0xba999a28bd65fd4cU, 0x3d16ad3d3d062983U,
  0x3d9852fabc20e630U, 0xbdae84993d8c5457U, 0x3db17cd53da03b75U, 0xbd8bd325bcbe2f2aU,
  0xbd8e4c1abcf6a67dU, 0xbcfdefe43d07739dU, 0xbd1a3c82bd54fb1eU, 0xbd63146c3d477466U,
  0xbd511231bc00634cU, 0xbc486d0ebbf541a8U, 0xbd1bdbb6bd42a357U, 0x3b92a94ebcb9a8b5U,
  0xbd2896913d86d49cU, 0xbc22709bbc946344U, 0xbd26b46d3d335db1U, 0x3d86fdf0bda2fa81U,
  0x3d388f22bcd3d4fcU, 0x3db8c36cbd24d120U, 0xbd9e5458bdb69a64U, 0x3d5f6a6fbd4a9f4bU,
  0x3a364b6fbd5455cbU, 0x3ce23eac3d7302d8U, 0x3c9c5451bcebf78dU, 0x3bd0c840baf7a970U,
  0x3d85cde73da73a47U, 0x3db6014a3d020910U, 0xbd76a9c13c8aaf9aU, 0x3db66b4e3a17c4a8U,
  0xbd8331c43d1397f4U, 0x3cbb19b83c834aa1U, 0x3d0ec65a3c80bda6U, 0x3db0bc083d941250U,
  0xbd904f25bd18c3f4U, 0x3da4eab23d0a4fc8U, 0x3d94aae9bd86f354U, 0x395e06b23c6f54bbU,
  0xbcbdb17f3d67475cU, 0x3daf18453d46d258U, 0x3d82f4893da9d50dU, 0x3cce4b1d3dba91e1U,
  0x3da7d0533d10da28U, 0xbd5782bf3dc2a919U, 0xbce354c3bd0a3146U, 0xbd47da193cf4d8c3U,
  0xbad8179a3bbf3319U, 0xbd2fd8a2bccc3039U, 0x3d7b2ca0bd9e44f7U, 0x3db810e13dbc6b8aU,
  0xbcfcc1f53d0ed2c2U, 0x3c9fe3ba3d93ee53U, 0xbd005f05bca6757bU, 0xbd29103d3bbc9e66U,
  0xbda476a73d409d9bU, 0x3d2a081e3da89b3bU, 0x3ce2d7ea3dbec6adU, 0x3d002dae3d681c58U,
  0xbb444dd53d9969cbU, 0x3a5acedcbd6b5abdU, 0xbd785125bd6a7166U, 0x3d992234bc8e8334U,
  0xbb49e2a33d0b48fdU, 0xbd95fa63bd4546a7U, 0xbd66a757bdb09f84U, 0xbd46ecbd3d04bc8aU,
  0xbcdcfeeebcc3c508U, 0xbd8e8463bc1a1797U, 0xbd5cc9693d692cf0U, 0xbd2e106ebceae701U,
  0xbc65612e3b433e5dU, 0x3b450109bd7bddb3U, 0xbda5b7b4391bcf50U, 0xbd6a6c63bdcde727U,
  0xbc94b0773d769af5U, 0xbd9b1652bcbb4023U, 0x3d0a5837bb376a28U, 0xbd8b939f3d6c6b30U,
  0xbdc3e927bb91a180U, 0xbc25c729bd5f1b43U, 0x3c46eb67bb6ec1c3U, 0x3cab3cedbd6d3a6eU,
  0x3cc8077c3d6f5a4dU, 0x3d9e4a213b969014U, 0x3c6890353d2a7ad4U, 0x3c36677cbd865495U,
  0xbc2a30473d39f6d9U, 0xbd814d48bc92fe46U, 0x3cc79f513c77b27aU, 0x3d03f54bbdb6e9d6U,
  0x3d78e99e3d4cb165U, 0x3d64e24ebce2fd1dU, 0x3da2a8a1bdae4a48U, 0xbd549472bce7414dU,
  0x3ba02d1f3d084419U, 0xbdc5d3a0bdaf879fU, 0x3d1b9ac4bd8df6f8U, 0xbcee19a83c45f7b8U,
  0x3bf8a9e0bcbbc0b0U, 0xbc89e5f03d169f19U, 0xbc03d79cbd938e64U, 0xbd98a90c3bb90bf4U,
  0xbd6d62fe3d312fdaU, 0xbd5d6766bd031d7fU, 0xbd1b76623d4a292dU, 0xbbf76942bd6977a4U,
  0xbd7b4c3dbd3b766aU, 0xbd41a4ec3d28e17cU, 0x3da64a7c3ba0abbcU, 0xbcd2f4d0bca6ce1eU,
  0xbda0c22d3dc4e36aU, 0x3d958b9e3d99d29eU, 0xbd29aa563ce076e7U, 0x3cde03463d9d82b9U,
  0x3c2499d63d6c2204U, 0xbd3a0a893d5f35f3U, 0x3d87481bbd8c6a50U, 0xbd2f005abc2b3a14U,
  0x3d295dd1bb696591U, 0x3d4971c53d754f0dU, 0xbb2bbf30bd83cbc0U, 0xbd29f57abc72f1b6U,
  0x3d2e1b8dbd4df653U, 0x3a4979c9bd240359U, 0xbd8450503d1310bbU, 0x3c41b88a3d615545U,
  0x3b8198f0bd0e8510U, 0x3d12bb563d37fe42U, 0xbd7577b93d386f56U, 0x3a8d59f83c8bbcccU,
  0xbd2459df3bcb407cU, 0x3d7e04d23bd09bd1U, 0x3cb28dcc3c8113eaU, 0xbd0f6bd2bdb38ca5U,
  0x3cd15c4e3d99ffe8U, 0x3c446ac43d9e5f4fU, 0x3d485d803d56f6dfU, 0x3d90df133c966a74U,
  0xbd7a71ac3cd572b9U, 0xbcc0d821bd993a23U, 0xbd1fd8c6bcc61481U, 0x3cdfe7bf3d970a6eU,
  0xbdaa1c983d909506U, 0xbb1067203b9e692fU, 0x3d56b4b9bd291901U, 0x3d06c195bcfcbb9fU,
  0x3d8f82bb3d40bec5U, 0x3d89493fbc8e79d0U, 0xbd686af93c8216a0U, 0xbdc7b357bbbc1677U,
  0x3c41b4e63c8461cbU, 0x3d99101e3ca97c75U, 0xbbecdd743bad4093U, 0x3c783417bd2f83ceU,
  0xbdbe92223d125747U, 0x3cc3a76cbd93c286U, 0xbb6eddb03c4372a4U, 0x3d485decbd171598U,
  0x3ce083513d74ea87U, 0x3cadf2eabc4057b0U, 0x3c3510a8bdad04a0U, 0xbd159b963d7cd96aU,
  0xbdbe467c3b106411U, 0xbcc49ab63d30f87bU, 0x3d593d1ebd6f111fU, 0x3d7229b43d2861d1U,
  0xbcf8e6263d576985U, 0xbdaf9e0b3d06a76cU, 0x3da91169bdb7d7b7U, 0xbd185fc0bd86f6e6U,
  0x3b5d790c3ccaf99cU, 0xbc2e9ec53c812ca4U, 0xbce31e3ebcd48217U, 0xbd8c737b3d2c87e6U,
  0x3c6d676ebd3bf044U, 0xbd3cbc593ca7f845U, 0x3d7f294f3d3b90e9U, 0x3d4f8a6b3d038f0bU,
  0xbd38154abd97d4a3U, 0xbd1fc529bd1741a8U, 0x3d87ad57bd803e97U, 0xbd553720bb1336faU,
  0xbdac04eebbdc7027U, 0x3d86bac9bbd8fecfU, 0x3c888e553c21cc92U, 0xbd617b203db473a5U,
  0xbba155b3bbdc0349U, 0x3dbc81c6bda5ee7eU, 0xbdac499f3d891957U, 0xbd81e7823d97a2d7U,
  0xbd33e6a13c02dc2fU, 0x3d2df8d2bda26b5dU, 0xbd858eecbd0f2cf2U, 0xbda7c5f3bc123251U,
  0xbdb2e7aa3d722794U, 0xbd394c1c3d29304fU, 0x3d6163193d99c3aeU, 0x3d36bc2c3c8875e9U,
  0xbdb30194bd58efc5U, 0x3d3ddbc4bd87f9adU, 0xbd17af713d8795ccU, 0x3aa991013d79f970U,
  0xbc5dd0ecbd208728U, 0x396e346fbd09fc6bU, 0x3cc522a4bd34d629U, 0x3ba25fa63c003fc4U,
  0xbda299f83b6d938eU, 0x3d87a277bd771f53U, 0xbd9012093c4424c3U, 0x3dae9d923d1deed5U,
  0x3ccc9c253d81819fU, 0xbd086780bc7d6119U, 0x3c0934473ccc0afbU, 0xbd854881bda3d0b5U,
  0xbdb25db83c8eb4ffU, 0xbcfe1e413c399143U, 0x3d6ca2a83c810ef7U, 0x3c3232123d2695afU,
  0x3d7baf8c3d05d417U, 0x3d07189e3da211e0U, 0x3ac4c166bbff13afU, 0xbcbd3b593d5c49b3U,
  0x3da28780bcc33200U, 0x3c085a5e3c1f88c0U, 0x3d8bd1cbbcfdedb5U, 0x3cf8bd79bd96a1d1U,
  0x3d33897abda630c8U, 0xbd9c3069bd1d642aU, 0x3c6d9fcf3db122daU, 0x3d02d3573cfe07aeU,
  0x3d52337ebd505c28U, 0xbda1fa38bd317b78U, 0x3bfc4d11bd35e4e1U, 0x3dbcece4bda9602aU,
  0xbda87b553ccef508U, 0xbce2d225bd1542f7U, 0x3d8dcba03d4ed308U, 0xbc9899963d255484U,
  0x3dbd067abd3d0631U, 0x3d8a7915bd49fc58U, 0xbd19a110bd5af943U, 0xbcdb1dd63cc59404U,
  0x3c155c6bbc95f9efU, 0xbdb4c6543d898d2bU, 0xbccd5db23a718b75U, 0x3d24e79dbd642742U,
  0xbd1615d13d9bad5bU, 0x3d3dc2083d963c0cU, 0x3d08440dbdaa4404U, 0x3d4a3cadbd763a66U,
  0x3c83efb5bdb70245U, 0x3d5d9d90bc356636U, 0xbdc35c233d586e65U, 0xbdc451763cd0befeU,
  0xbd5f75c23cb4a20fU, 0xbb2f523abceedaf9U, 0x3d980e913aec10d5U, 0xbda68d84bb85fea9U,
  0x3d7add53bc22f3abU, 0x3cac2f613cecdea2U, 0x3db0a58bbd815cf2U, 0x3a10d4f8bda053d9U,
  0x3b2be92bbdac6c94U, 0xbb0806c53d935207U, 0xbccbe8de3d8cd06eU, 0x3d91db67bd39167eU,
  0xbd7a332b3d76ad8dU, 0x3d1ed6323d8e291cU, 0xbcc079b5bc52945fU, 0xbcaca71e3d55daa0U,
  0x3ccfba793d8b9f9fU, 0x3cf128223d17574aU, 0x3db3d7d6bc4e7cccU, 0x3d40ded4bc935ca8U,
  0xbb5b8234bd136ce0U, 0x3c3b27db3ae64540U, 0x3d47b503bd843567U, 0x3cd2ed6fbd12e915U,
  0xbd65af3bbca51319U, 0xbda262313d253709U, 0x3be08226bd9a9f26U, 0xbd4b2bbe3d643fd0U,
  0x3d972a72bdaa3a26U, 0xbd267fd5bcbb9e70U, 0x3c887253bd0d4f3fU, 0x3c6fec503dafc163U,
  0x3c70b233bd8fd29cU, 0x3d65fb73bd639903U, 0x3c072eafbd942cdaU, 0x3cfea8a63c4a3944U,
  0x3d36551ebda1f7e2U, 0x3d993abc3c14407aU, 0x3d20e96a3cd19ee8U, 0x3d2892803d1906baU,
  0x3db0590bbd8a96aeU, 0xb92c02dbbc7d573fU, 0xb8ea07e7bd6da3bbU, 0x3d964271bd312bbaU,
  0x3d08faccbc0e4e3dU, 0x3dc41c9abd7b5b09U, 0x3c0233203d8253edU, 0xbd7dfc613d55499eU,
  0x3d010a69bd9b6a46U, 0x3ce64c56bd377ef1U, 0xbda43afc3d09b43cU, 0xbc4b3ae3bd01f1beU,
  0x3cff1af53c7e7ea8U, 0xbd49c3693da14414U, 0xbd50a030bd9bd651U, 0xbda8c168bd99e5d2U,
  0x3cd4b8313d9575c6U, 0xbd37a1703d20e361U, 0x3834e5d23c9d70f4U, 0x3d84cca8bbd38e38U,
  0x3d3478a9bd9c224aU, 0xbdba7a7d3c185115U, 0x3c82d14abd214219U, 0xbc7a5d2a3d70e457U,
  0x3cfc19b73cb4d6c2U, 0xbdb788eebb8bc73dU, 0xbd5947043d52c900U, 0xbd316f7fbda5eee9U,
  0x3d3de05c3c3961bfU, 0xbcd5e440bc1bf0d5U, 0xbd5a4780bbc621e6U, 0x3d23a4243b9f8bd4U,
  0x3d91ba18bd55348bU, 0xbdbc54fdbda39daeU, 0x3d1967ab3c2509ebU, 0xbd00d459bd7521e4U,
  0xbd35da483d6eca2eU, 0x3d91a3e2bbc2ded8U, 0xbcc405a5bc02ec7eU, 0x3be19e4c3d323bf7U,
  0x3d180725bd601b27U, 0xbc968ba33d4ffce1U, 0x3d9ccebebd847decU, 0x3d1b3594bd8bd19dU,
  0x3d84b21b3c1e878fU, 0x3d90686f3d333080U, 0x3da2ea573d14ce79U, 0xbc90b7bc3dbd74a6U,
  0x3dbc01663d5316acU, 0x3d29f7083d9e37adU, 0x3cfd4dc73d91e314U, 0x3d608384bd464fb7U,
  0x3d420111bb9b01ceU, 0x3db9aad4bd2943cdU, 0xbda3a648bcec46f4U, 0xbc948f483d4d6f34U,
  0x3d8f466a3d91f2eeU, 0xbce8f603bd350796U, 0xbd218a62bcd8fd89U, 0x3d9abebbbc12dc13U,
  0x3d4f75e9bd69bde4U, 0x3cd18d0ebce18698U, 0xbd8b420dbda37133U, 0x3da0dfecbd5561eaU,
  0x3b5baae83ce48144U, 0x3d242dde3ca86479U, 0xbb646806bda0d059U, 0xbcd305883ccfedf5U,
  0xbd56e517bd444f28U, 0xbcaa8813bd2f4592U, 0x3b28d8943cb39f5bU, 0x3da7466dbd05edeeU,
  0xbd7556a8bd570edeU, 0x3d058dfebd152cafU, 0xbd591e153c85ec55U, 0x3d3a926bbc884615U,
  0x3d9ca25bbbfb7485U, 0xbd333d29bdb4c3d4U, 0xbd80af51bd1209d5U, 0xbc9cb7203d512ea2U,
  0xbd134390bd19af26U, 0xbb97e7ae3d4f5052U, 0x3d181ffd3d25d663U, 0x3da51c0b3cf2f90dU,
  0x3d201163bc7e9a98U, 0xbd807d983d0fe55eU, 0x3d1e32febd3ca489U, 0x3d19d8113c16c4c9U,
  0xbd028f8f3b332b8cU, 0x3d5aa733bc8cbab1U, 0x3d756ababd202e59U, 0x3c8106da3c3c7b6cU,
  0xbda6bf74bcb2c50eU, 0x3d0ca878bdbbf71dU, 0xbdb4daf1bda56d58U, 0x3d9bac7cbd11a729U,
  0xbdae2b253d90f3d2U, 0xbd8437e8bdaf2d45U, 0xbb8f0f5d3c80efceU, 0xbd9ecab3bd9a89a0U,
  0x3d9345b4bd108718U, 0xbd5b4a2c3bad3420U, 0xbdb58bbfbc0c594dU, 0xbdc348753d748043U,
  0x3ccc43ab3d40685eU, 0xbd2eff9abdaa4c89U, 0x3d87f604bd81658dU, 0xbd918835bcf5a4ffU,
  0x3d7dfd76bdc0f63bU, 0x3c400a18bda55533U, 0x3c0a42383cf073c7U, 0x3d1db862bd9ddbaeU,
  0xbd4b7d583da623f8U, 0x3d1f36dbbbec68a1U, 0xbd998575bd0ba8c2U, 0x3c8972e53d9bdac5U,
  0xbd1a0a3cbdb7b5f0U, 0xbdafa19a3d069bf9U, 0x3c2ed242bd802cfaU, 0xbc1efa4ebd8c5e79U,
  0xbd236b4abcb5bca7U, 0x3d5a19043d3aa8ecU, 0xbb99e3533d808b44U, 0xbdba8b3b3d298c87U,
  0xbd8abd1d3cde2b11U, 0xbcdd745ebd4d4e4dU, 0x3cde07ca3d626507U, 0x3b5b4c87bd5c71beU,
  0x3d0b4ba43d269324U, 0x3d0c28c33ccb550aU, 0x3d52d1c6bcc4f99eU, 0x3d83d10cbd354cd3U,
  0x3cd4c1bbbb993c7fU, 0x3d4cc01b3da2aa28U, 0x3c3fc993bc207168U, 0xbda021b83c6f0a0eU,
  0x3cf2c07b3d8c4b8fU, 0x3da47354bdb2df8fU, 0xbd939b59bd70e7a7U, 0x3c4917273db7abebU,
  0xba6a296abd323fb5U, 0x3aa3ea5b3d786c0fU, 0xbc1d2ef1bc896c01U, 0xbd3ac1f1bdb50128U,
  0xbdba4070bdb24bf0U, 0xbd579d08bda8dfcbU, 0x3d52dc6cbdb0d346U, 0xbba784a13aeaa436U,
  0xbdb043bfba61dd2bU, 0xbdb085e53b10ac9eU, 0x3cfeae3dbd3d7835U, 0xbd948e593c21f65dU,
  0xbdb38b0a3bf96f5cU, 0x3ce440263d5dc027U, 0xbd788791bdbab86bU, 0xbb8d8dc7bb8c3a7aU,
  0xbd3ae2493c937598U, 0xbda060e63d0d744cU, 0x3d2dc426bcac42deU, 0xbc9cb116bd3ced55U,
  0xbab48bdfbd7ce3d7U, 0x3bfcece8bd64e0b2U, 0x3d628811bc8173d5U, 0xbdc55fa73da1f78fU,
  0xbcf392893d93ce37U, 0xbd84bd0abd7c8b6eU, 0xbb8c68373d48ff70U, 0xbcbeab6e3da57a7fU,
  0x3d40cb2dbd6a1f5aU, 0x3d2fa540bd91e026U, 0xbb2be6b3bd3c33e4U, 0xbd95f9fc3d8ece59U,
  0x3d656826bd6e2ac5U, 0xbdbf81023c234891U, 0xbc7435d4bd9da559U, 0xbd53c68dbb1459e0U,
  0x3ccd3444bd44172cU, 0x3d8f7e8ebb02fb04U, 0xbce03cb9bd98828aU, 0xbd6eba22bcaebc32U,
  0xbd9b8b54bc6bfd32U, 0xbdc6add43bf3beb4U, 0x3d973871bc77d3afU, 0x3d4e872dbcfb7eb6U,
  0x3d7d3f1dbdb286c8U, 0xbdabd2443cf77ac5U, 0xbc452ad8bcbc561cU, 0x3ce4cd3d3d7744caU,
  0xbc6c26973d42f1e4U, 0xbd7b88853d2a4636U, 0xbdb7303ebd455252U, 0x3d278c07bca8ff74U,
  0x3b3b36da3d2b99eaU, 0xbd0d038b3da562ceU, 0x3cdf98c1bd870bdbU, 0xbcf914f1bce4ec63U,
  0xbd961e583cac4f33U, 0x3d1efa2bbda04d4dU, 0x3d96318ebd5a0adaU, 0x3ce6a12d3d487ad3U,
  0x3d58e5be3d1009f9U, 0x3d03fdffbd6ccb8fU, 0xbda916293d8e2cbdU, 0xbda6adf6bd154a2bU,
  0x3cd32d2a3d4c3750U, 0x3cc3e2453da8a364U, 0x3d5d0e02bc30a021U, 0xbc757601bd057f9aU,
  0x3d5efc0cbc79457cU, 0xbd7d53bf3cca9318U, 0xbda59969bbe6a4b3U, 0xbc493de93d635cd0U,
  0x3c9bfa37bd9653feU, 0x3b250e4fbcc48a33U, 0x3d6f0b30bda0bfcdU, 0xbcefad213d8d4718U,
  0xbd7f556b3ad0cebbU, 0xbdc74ad63d976fcaU, 0xbd1226a5bd7d917cU, 0x3d7158473d16c7b8U,
  0xbcc26405bc5da4dbU, 0xbd28651ebcd9a8f0U, 0x3da1700abdad8374U, 0x3da21b343be1f404U,
  0xbd6345a93d132928U, 0x3ce925a6bdc5ee08U, 0x3d09a2d1bd6244f2U, 0x3ca23a5c3d9e616bU,
  0xbd85a864bdc1a74eU, 0x3d95e5393da0e55cU, 0x3d5e1dc3bdad1161U, 0x3d18d285bdc1ae75U,
  0x3d3414a8bd856fd6U, 0x3d5cbc1f3ccff48eU, 0xbc50239bbbbdf346U, 0xbc911661bd6d9e7eU,
  0x3d4ba32b3da26934U, 0x3d74d4ad3d89f0c0U, 0xbd789f81bda01d2eU, 0x3da8719fbd8bcfe5U,
  0xbd4855c53d46c856U, 0x3d8dda1bbbfd41edU, 0xbdbdc67fbd99af76U, 0x3c322dc9bcea1640U,
  0x3dacdaf53d2b2e0cU, 0xbc12fbb73c646d92U, 0x3d27ab5fbce6678dU, 0xbd9fcbf0bd381367U,
  0x3d45b9ec3da3a8e5U, 0xbcd59c383badc1f1U, 0x3d4119853cf7105eU, 0xbc736e0b3d8796aaU,
  0x3d8b5ecdbda993d0U, 0xbdaf2ad83d86c16dU, 0xbdac3c16bda2ce5eU, 0x3b7980363b80794eU,
  0x3cd03976bc46fb7fU, 0xbd6aa830bcda16c3U, 0x3cd228dabc546521U, 0xbd398f48bdb594d9U,
  0xbc13a0ec3b93bf60U, 0xbc4e87833d07a8aeU, 0xbd94da113d6f4304U, 0xbd5646fc3ce9b88bU,
  0xbc8065e13d852c6cU, 0x3d4a1bffbd8d6703U, 0x3d321baa3d3cbdbaU, 0x3cb2acc93be3b828U,
  0x3da32490bd46cc43U, 0x3d15860ebd90d786U, 0x3d88c971bd15e0d5U, 0x3b75883abd61bd92U,
  0xbd9e17fbbdb60bcbU, 0xbd294b783a79edd2U, 0x3cf42549bcb3d70bU, 0xbd1ec80c3d8b1b26U,
  0xbd8f4055bd48329dU, 0x3db3b79cbb9c9bd6U, 0xbd5b6f333dbda8b8U, 0x3d55abe53d8313a5U,
